a
the
di
to
in
e
che
of
and
that
la
I
un
il
è
are
i
is
per
,
.
you
we
una
And
le
non
s
o
s@@
e,
e.
it
--
this
ed
in@@
re@@
si
on
ri@@
al
ing
was
i@@
a,
"@@
sono
E
for
a.
come
t@@
S@@
da
have
e@@
o.
l'@@
es
o,
ato
di@@
a@@
del
ar@@
with
con
o@@
de@@
se
an
b@@
più
g@@
st@@
f@@
p@@
at
so
:
do
s,
-@@
l@@
d@@
they
?
can
be
as
about
s.
er@@
y
ate
what
it@@
ci
della
ma
u@@
or
n@@
ano
all
questo
on@@
So
one
er
not
m@@
c@@
y@@
v@@
an@@
my
at@@
am@@
es@@
ha
i,
en@@
r@@
ale
al@@
A@@
M@@
un@@
or@@
mi
from
co@@
ro@@
B@@
D@@
h@@
our
ic@@
y,
T@@
li@@
gli
but
i.
nel
se@@
like
t
per@@
et@@
it's
con@@
av@@
k@@
si@@
lo
me
pro@@
just
pi@@
C@@
im@@
ver@@
es,
people
dei
P@@
mi@@
ac@@
el@@
But
w@@
as@@
these
era
The
if
very
E@@
y.
by
Ma
fi@@
mo@@
delle
ad@@
ti@@
es.
ho
z@@
pre@@
cosa
abbiamo
ol@@
ch@@
going
out
ap@@
molto
ad
cui
N@@
when
more
em@@
essere
questa
ci@@
had
alla
ere
We
In
R@@
d
ra@@
so@@
to@@
ando
because
how
L@@
O@@
vi@@
ati
."
F@@
po@@
vi
their
perché
ent@@
get
anche
re
were
your
de
ata
ur@@
ag@@
hanno
ation
which
zione
loro
us@@
there
would
up
quando
cre@@
do@@
th@@
azione
lo@@
G@@
Non
ex@@
he
ly
att@@
La
no@@
who
for@@
really
ore
think
dell'@@
H@@
est@@
see
chi@@
into
ab@@
bi@@
inter@@
I'm
gi@@
ut@@
com@@
le@@
fare
su
sh@@
col@@
solo
par@@
has
ti
ing@@
su@@
'@@
It's
min@@
ica
This
us
where
vol@@
some
ma@@
persone
go
car@@
Il
dis@@
uno
m
and@@
ec@@
them
cor@@
1@@
man@@
amente
ai
quello
str@@
then
ono
be@@
It
will
don't
ter@@
actually
bo@@
te
that's
W@@
tutti
d,
ll@@
ul@@
You
tutto
k
qu@@
ali
sp@@
no
tr@@
know
♫
all@@
ne
un'@@
could
ing.
nella
gen@@
pa@@
K@@
pl@@
make
modo
I@@
sol@@
così
ine
ev@@
ori@@
been
other
want
far@@
ist@@
ità
io
is@@
ent
ente
fin@@
sia
ing,
ers
il@@
anni
J@@
tu@@
able
questi
pe@@
queste
mio
ico
ant@@
sc@@
ò
fatto
zz@@
ar
ot@@
's
than
tion
ciò
stato
ally
mia
È
amo
cont@@
all'@@
pot@@
way
n
ed@@
der@@
those
mor@@
it.
ve
"
op@@
ett@@
ta
me@@
d.
sta
ale.
ca@@
ts
gu@@
dic@@
ve@@
te@@
ric@@
Questo
They
3@@
got
things
met@@
p
V@@
something
ven@@
his
cose
ess@@
enza
ity
k,
2@@
oc@@
due
parte
;
h
enti
TED
può
first
pri@@
time
siamo
ce
we're
ne@@
ell@@
look
also
little
prima
e?
gener@@
ogni
ment@@
est
tra
ta@@
vo@@
years
ite
go@@
endo
cer@@
en
br@@
only
c'è
we@@
t.
mondo
mon@@
are.
two
A
?"
now
ed,
most
dal
bu@@
mar@@
fac@@
over
ale,
ir@@
ni@@
ed.
even
ph@@
need
back
-
va
ali@@
er.
much
port@@
Quindi
acc@@
sul
ical
ari@@
chi
.@@
sen@@
t,
ice
ete
age
In@@
sa@@
li
dove
ous
st
er,
take
re,
mat@@
ori
many
Se
kind
lot
ina
g
thing
new
...
degli
noi
here
poi
wh@@
ks
are,
sti@@
so,
you're
she
gh@@
world
sulla
l
What
work
int@@
qualcosa
Talk
os@@
ante
ser@@
use
4@@
quel
An@@
it,
ast@@
alt@@
its
said,
there's
bl@@
Subtitles
Transcript:
mai
por@@
fer@@
pen@@
cas@@
ated
ris@@
ou@@
c
x@@
re.
gli@@
mo
sur@@
L'@@
aff@@
zioni
alle
cu@@
ato.
right
son@@
almente
through
da@@
dov@@
ava
idea
end@@
ero
anno
vedere
ora
uc@@
ati@@
iti@@
every
nostro
quella
possiamo
sione
ra
around
E'
tra@@
et
k.
azioni
fo@@
pol@@
ici@@
vita
sor@@
So,
Qu@@
her
gente
can@@
cl@@
put
fu@@
Now,
ancora
being
ber@@
fe@@
me,
U@@
king
different
ted
If
zi@@
dalla
fl@@
any
quanto
they're
pens@@
ion@@
form@@
ic
th
did
rit@@
ato,
Per
mer@@
eg@@
zion@@
ru@@
know,
part@@
ari
pres@@
off@@
ino
ici
Sono
sua
ds
good
ence
e:
'
o?
fa
same
7@@
om@@
suo
tt@@
rel@@
ten@@
anti
nostra
tras@@
9@@
qui
j@@
called
are@@
ang@@
!
sempre
ass@@
d'@@
fic@@
davvero
etto
person@@
uto
grande
".
cent@@
altro
Ho
Questa
ding
lin@@
Now
so.
gr@@
x
10
du@@
co,
pic@@
I've
sci@@
Ci
tor@@
uman@@
do,
6@@
tiv@@
tri@@
wi@@
cam@@
eva
dere
wor@@
ge@@
ting
la@@
amento
nei
ai@@
5@@
spe@@
ded
differ@@
doing
do.
ch
co.
possi@@
men@@
sa
He
down
senza
cambi@@
possono
that,
own
volta
ho@@
ant
Si
ide@@
Abbiamo
continu@@
Well,
find
Th@@
stra@@
three
nell'@@
ation.
pu@@
cat@@
0@@
sion@@
sal@@
tre
tell
gg@@
That's
speci@@
wa@@
Come
you.
Ch@@
tempo
stata
ation,
made
human
is,
dire
rat@@
bas@@
che,
ann@@
r
cost@@
ge
cos@@
avere
tutte
olo
used
ssi@@
dat@@
ying
dopo
eri@@
cal@@
pr@@
diamo
nelle
bre@@
ating
diver@@
bar@@
qualche
tal@@
se,
proprio
vit@@
Le
altri
talk
Perché
pag@@
ment
quindi
avano
erano
give
ever
nostri
dist@@
life
gn@@
import@@
started
war@@
esse
ely
hi@@
aggio
percent
not@@
b
why
arti@@
evo
after
à.
might
molti
ak@@
Quando
ia
voi
ica.
enc@@
mag@@
ra.
Thank
am
tipo
anza
St@@
say
we've
gra@@
parl@@
didn't
ly,
mostr@@
leg@@
pass@@
last
val@@
aggi@@
lu@@
ob@@
ra,
up@@
anc@@
iamo
he@@
à
tro@@
8@@
el
inc@@
me.
on,
tre@@
deci@@
trans@@
etti
reg@@
Y@@
day
ani@@
materi@@
meno
mento
ran@@
evol@@
a?
test@@
,"
Ed
sto
ther@@
ations
went
ki@@
ved@@
sap@@
There
mus@@
far
ica,
lavoro
ani
problem@@
itu@@
should
quest@@
au@@
19@@
enti@@
anti@@
5
oper@@
ov@@
never
Mi
ativ@@
vent@@
po'
red
ked
ary
ca
,000
prov@@
o:
circa
w
post@@
colo@@
ess
ear@@
de,
storia
50
fon@@
sion
ire
dall'@@
ren@@
fine
stre@@
gro@@
inizi@@
bisogno
altre
der
ff@@
liv@@
’@@
star@@
ative
ance
great
negli
her@@
20@@
zione.
produc@@
ase
amente,
can't
big
Mar@@
20
stesso
od
divent@@
viene
part
ini
à,
punto
rac@@
When
ey@@
don@@
aut@@
change
acci@@
sistema
mem@@
sic@@
Ri@@
cur@@
serv@@
gre@@
spi@@
de.
still
les
few
each
é
comun@@
tem@@
arriv@@
sco@@
found
mentre
sit@@
pi
Di@@
came
ill@@
one.
fil@@
har@@
to,
How
iti
end
ght@@
wat@@
den@@
Wh@@
essi@@
ese
alizz@@
that.
bell@@
start
mas@@
Un
stiamo
between
aveva
Con@@
another
ole
soci@@
cho@@
200@@
als
next
ario
That
show
studi@@
ate,
lasci@@
um@@
on.
sup@@
looking
ow@@
ss@@
avo
ator@@
ente.
say,
cap@@
potete
ali,
al,
stanno
ali.
guar@@
[@@
ini@@
funzion@@
dati
bit
abi@@
problema
ke
polit@@
plan@@
coll@@
ther
inf@@
does
bile
miei
fosse
trov@@
Co@@
ble
this.
chiam@@
New
ner@@
dit@@
ze
cit@@
any@@
to.
uti@@
lavor@@
legg@@
stor@@
se.
dar@@
ano.
vo
ragazz@@
world.
pren@@
dire@@
one,
ti,
atti@@
mol@@
better
andare
viv@@
zza
alcuni
body
compl@@
ion.
comput@@
hand@@
ro,
innov@@
ene
them.
state
Per@@
tur@@
zione,
creare
evano
bra@@
individu@@
al.
old
doesn't
ion,
defin@@
te,
h,
e-@@
ità.
ron@@
fuori
less
data
fino
in,
f
ain@@
tive
entr@@
tut@@
insegn@@
azione.
ban@@
nu@@
immagin@@
realtà
milioni
giorno
visto
Una
Al@@
ep@@
ita
le.
sem@@
interess@@
work@@
u
dre@@
sort
4
char@@
proc@@
segu@@
man
ions
af@@
no,
ante.
Così
ement@@
this,
always
anim@@
fun@@
wanted
anni,
comes
Because
dobbiamo
ach@@
nostre
giu@@
voglio
Pro@@
ro
mal@@
sarebbe
loc@@
ambi@@
call
oce@@
quelle
low@@
the@@
anz@@
lo.
aiut@@
comp@@
bac@@
00
mondo.
ore,
pes@@
time,
rest@@
ere,
may
important
positi@@
stat@@
a:
act
trying
ings
ans
30
medi@@
ose
rete
potrebbe
off
us.
Ma@@
Ecco
edi@@
primo
capire
computer
dow@@
pan@@
pos@@
bambini
ses
try
using
acqu@@
esist@@
verso
air@@
Su@@
si.
]
design
dro@@
avete
other@@
acca@@
rag@@
dent@@
ito
viol@@
le,
",
said
molte
ste@@
design@@
3
stati
pas@@
già
forse
vic@@
volte
ity.
ce@@
whole
cominci@@
ach
before
long
pp@@
posto
ct@@
working
no.
oni
over@@
dice
plo@@
present@@
dai
ì,
net@@
th.
chio
costru@@
invest@@
inst@@
ry
pun@@
nuovo
chang@@
understand
connec@@
shi@@
way,
ke@@
high@@
qualcuno
program@@
create
mess@@
detto
allo
boo@@
ty@@
ace
some@@
arsi
cell@@
prendere
pe
ers,
us,
thought
2
societ@@
sei
million
glob@@
lav@@
cli@@
lead@@
mb@@
micro@@
fre@@
pensare
what's
four
human@@
real
app@@
tanto
veramente
feel
controll@@
che@@
ate.
Li@@
credo
anni.
imag@@
super@@
enz@@
educ@@
took
agli@@
Ora,
Ar@@
fat@@
become
parlare
azione,
live
essi
grandi
out@@
fa@@
alc@@
amb@@
ute
100
guard@@
land@@
attraverso
hel@@
plac@@
time.
place
sper@@
fu
ful
ally,
lun@@
conosc@@
ore.
Ora
coming
fact,
incredi@@
'd
na
lat@@
indi@@
an,
bor@@
cir@@
natur@@
cri@@
brain
ano,
tutta
Av@@
Lo
momento
ps
bro@@
ente,
sce
capit@@
m,
signific@@
in.
azz@@
enze
dare
help
ds,
nam@@
ti.
"S@@
story
sign@@
eff@@
amo,
believe
ue
ig@@
quite
bri@@
love
abb@@
social
donne
ità,
ous@@
thing.
nor@@
vari@@
My
et.
necess@@
med@@
et,
water
uni@@
ola
you,
happen@@
bili
oggi
ere@@
pt@@
gio@@
avuto
forma
ss
making
th,
ity,
done
All@@
ante,
atori
cro@@
segn@@
id@@
there.
via
Grazie.
tec@@
dir@@
simi@@
sioni
ati.
grado
ities
ast
si,
y?
li,
way.
sub@@
%
enzi@@
mente
There's
ata.
mo,
means
moment@@
te.
din@@
aver@@
here,
n,
fam@@
migli@@
consider@@
importante
dato
seri@@
ere.
liber@@
pressi@@
govern@@
alcune
colo
getting
ma,
gia
unque
stessa
women
him
qui@@
These
ral
maybe
sy@@
here.
altra
etti@@
Quindi,
oni@@
sarà
sta@@
eng@@
Gu@@
build
ga
quale
too
without
One
agli
mett@@
pover@@
aspett@@
Io
sent@@
wee@@
ics
every@@
point
pat@@
mani@@
10@@
fel@@
trovare
quasi
duc@@
ture
bile.
medic@@
them,
ons
Euro@@
avi@@
en,
co
aw@@
dut@@
esso
minut@@
tar@@
sk@@
stru@@
course,
Indi@@
year
colleg@@
penso
secon@@
mo.
♪
pt
I'd
od@@
Par@@
ard
light
perf@@
problem
um
sure
n.
abbastanza
scri@@
6
jo@@
list@@
tw@@
m.
aria
world,
let
dev@@
enza.
power
7
ei
siano
usare
dalle
lo,
ro.
tecnologia
specie
I'll
tion@@
e."
menti
lui
Is@@
TED@@
told
fanno
caus@@
Gi@@
number
win@@
school@@
talking
mark@@
pati@@
avamo
amp@@
sui
avevo
ved
org@@
Nel
res
gam@@
ina,
vengono
sue
probably
ack@@
system@@
pretty
dollar@@
inten@@
ati,
acqua
ì
mill@@
quattro
best
ju@@
maggior
problemi
suoi
ask
ave
video
We're
invent@@
sin@@
Era
kill@@
form
ger@@
scor@@
technology
like,
out.
Si@@
stand@@
econom@@
piac@@
environ@@
out,
makes
cresc@@
città
five
small
care
enza,
Be@@
az@@
now,
day,
"O@@
,@@
propri@@
insieme
scienti@@
00@@
amenti
tratt@@
ill
sm@@
ologi@@
bb@@
across
ich@@
15
contro
effec@@
inv@@
Com@@
cervello
numero
low
prof@@
ers.
C'è
ga@@
s?
them@@
Mo@@
ana
missi@@
he's
vist@@
ione
gran@@
sulle
thre@@
self
chied@@
succ@@
ght
point@@
Ne@@
settiman@@
scar@@
preci@@
agi@@
casa
giov@@
line
svilupp@@
thinking
ura
giorn@@
ence,
everything
sing@@
o-@@
As
nas@@
condivi@@
raccont@@
univer@@
emente
you've
clo@@
fortun@@
son
squ@@
cc@@
riusci@@
tim@@
clas@@
emo@@
sull'@@
tiamo
significa
regi@@
Ro@@
secondo
kids
rec@@
atore
olog@@
capi@@
amo.
plic@@
osserv@@
together
ma.
erò
grow@@
years,
des@@
senti@@
people,
prote@@
ure
po
ettiv@@
face
shar@@
quelli
set
ence.
pul@@
Che
ello
scel@@
ement
st,
fantast@@
Why
spieg@@
arvi
allora
po,
organizz@@
Quello
ash@@
mach@@
las@@
tratta
Gli
zed
deve
ure@@
media
non@@
esper@@
eri
mettere
Nor@@
him@@
iniziato
pon@@
ak
dr@@
facendo
For
vostro
Cosa
question
Le@@
Un@@
vis@@
progett@@
prossi@@
Go@@
gar@@
mondo,
atto
quali
wo@@
get@@
such
persona
certo
erà
alist@@
ago,
viamo
ici,
vostra
well
Vi
issi@@
li.
comport@@
pazi@@
amente.
learn
ly.
all,
realizz@@
teach@@
move
ina.
sost@@
posso
She
bilit@@
zzo
system
carb@@
lingu@@
po.
strut@@
evamo
Bi@@
an.
Stati
sembr@@
Voglio
senso
spec@@
arci
ricerca
tele@@
sel@@
50@@
away
ick@@
progetto
rappresent@@
ins
Z@@
having
miglior@@
semplic@@
second
e's
put@@
ogg@@
vero
dello
.000
ition
popul@@
40
there,
ost@@
hy@@
esi@@
digit@@
energia
prat@@
our@@
writ@@
children
saw
CA:
fur@@
sotto
Beh,
gono
ester@@
accor@@
ora,
ggi@@
ei@@
ship
e'
vita.
cento
domanda
gioc@@
Re@@
og@@
influ@@
illu@@
ack
veni@@
seen
aver
fa,
invece
esempio
ick
stu@@
raggiun@@
global
ella
und@@
ero@@
cin@@
dav@@
up,
descri@@
ve,
g,
hav@@
person
les@@
industri@@
di,
whether
let's
ament@@
bene
ong
wal@@
diff@@
vedete
metter@@
en't
hard
dri@@
almost
Fran@@
sett@@
icamente
esempio,
aper@@
corso
costruire
know@@
en.
under@@
luc@@
moder@@
sch@@
ede
ning
qual@@
remo
visi@@
looks
mp@@
utilizz@@
id
looked
nello
reste
robo@@
tru@@
head@@
oro
facciamo
ets
left
ata,
uso
you@@
ish
riv@@
ù
oria
Ter@@
durante
ents
pal@@
fatt@@
uti
possibile
messo
ve.
information
play
Sap@@
sero
single
expe@@
piuttosto
building
ates
pensi@@
livello
my@@
corr@@
or,
pla@@
osc@@
cambiare
top
young
dru@@
scal@@
civi@@
avevano
ioni
paes@@
ional
ation@@
asked
Africa
tta
dur@@
esi
ché
gruppo
All
forest@@
gest@@
que
life.
keep
half
arono
bod@@
sense
turn
opportun@@
up.
ecco
troppo
letter@@
compet@@
great@@
di.
nazion@@
thing,
p.
ultimi
vill@@
ors
enough
cia
uomo
giust@@
dra@@
famili@@
ricer@@
rap@@
goes
ovvi@@
ghi
siete
living
atu@@
ine,
batter@@
è@@
sfi@@
Grazie
durre
meglio
abbia
sequ@@
'll
ms
So@@
elle
pure
quei
doman@@
questo,
United
tan@@
bir@@
They're
parti@@
etta
ici.
piccolo
capacità
ments
imp@@
money
mini@@
within
cen@@
spesso
ard@@
stri@@
americ@@
'è
ter
science
pend@@
emo
8
equi@@
ricor@@
gets
ness
Vi@@
mov@@
oso
of@@
ves
tion.
ones
gere
scoperto
sembra
progre@@
arri@@
é@@
situ@@
9
bal@@
school
anzi@@
lungo
bambin@@
inclu@@
ah@@
fact
Internet
schi@@
sid@@
ef@@
while
economi@@
side
lit@@
tions
mean@@
experi@@
today
already
projec@@
ability
again,
nes@@
mes@@
appar@@
Ha
both
impar@@
elli
dire,
difficile
elec@@
high
percent@@
uro
cinque
età
ature
mu@@
evolu@@
No,
ific@@
energy
ic,
radi@@
real@@
collabor@@
ori,
portare
priv@@
questo.
poter
ect
thin@@
comb@@
roc@@
movi@@
people.
interesting
risol@@
anti.
riguar@@
nuova
ational
zia
oltre
wit@@
ri
tare
lì
sappiamo
spazio
"I
larg@@
men
recor@@
age,
Questi
macch@@
possa
technolog@@
graph@@
bring
biolog@@
test
ght,
and,
struc@@
times
chiar@@
public
lei
appena
paesi
ically
informa@@
sing
happened
cul@@
stori@@
base
heard
reason
often
contr@@
picco@@
Poi
scen@@
mean,
respon@@
inci@@
od.
sar@@
ucci@@
cultu@@
cr@@
robot
ic.
preso
gno
sapere
caso
commun@@
lam@@
Po@@
agn@@
biso@@
semplicemente
land
ways
ment,
p,
consu@@
terri@@
compas@@
Pri@@
da.
sli@@
1
des
under
ane
hom@@
ent.
g.
wasn't
ord@@
ato@@
coun@@
crit@@
case
solu@@
blo@@
sso
luce
rispon@@
ol
Lo@@
servi@@
probabilmente
Sh@@
important@@
ght.
tou@@
Siamo
ricev@@
conto
dirit@@
Gre@@
fir@@
space
business
y's
applic@@
da,
veloc@@
esso.
couple
new@@
room@@
ice.
inform@@
someone
urb@@
affron@@
ben@@
glio
ri.
imento
spac@@
den
stud@@
dol@@
qui,
comunità
colle@@
much.
mam@@
genet@@
inside
cio
chiamo
simple
well,
diverse
O
s:
intellig@@
years.
recent@@
60
fem@@
ir
your@@
fal@@
foto
meravigli@@
enti.
ys
book
six
Au@@
serve
vec@@
figli@@
società
niente
appro@@
ory
excit@@
port
cle@@
behavi@@
ine.
reas@@
tto
vere
vista
uomini
ricon@@
food
row@@
cercare
completamente
essu@@
rà
selv@@
ys,
Car@@
view@@
ter,
ries@@
preoccu@@
risposta
pubblic@@
S
led
room
tin@@
bly
bio@@
things.
sist@@
chiamato
piace
nessuno
zio
ner
poll@@
divi@@
ento
successo
avrebbe
kin@@
asi@@
nothing
dollari
mist@@
bur@@
ds.
impe@@
suff@@
piece
mapp@@
dest@@
è,
vediamo
hu@@
improv@@
anything
peri@@
000
nuov@@
bad
cop@@
this@@
ath@@
disc@@
diventare
persone,
mangi@@
elettr@@
country
work.
Pi@@
Di
dono
must
read@@
countr@@
mie
anti,
pur@@
home
mostra
For@@
example,
gir@@
tas@@
diversi
qualcos@@
vivere
against
facci@@
quest'@@
prend@@
ment.
all.
ate@@
limit@@
ta.
mano
miliardi
un'altra
effici@@
happens
ut
order
allow@@
billion
err@@
long@@
democ@@
built
open
ri,
devo
until
basically
ami@@
lla
magn@@
indic@@
ess.
objec@@
hol@@
tot@@
potere
age.
open@@
enor@@
bigg@@
dete
cercando
condi@@
sosten@@
ch,
origin@@
—
remmo
ori.
scrit@@
posti
armi
once
Man@@
ame
uta
abilità
reli@@
You@@
En@@
as,
area
tion,
Mol@@
norm@@
assi@@
hor@@
completely
national
termin@@
Pot@@
nuove
otti@@
creato
enti,
12
fic
mean
knew
ito,
paio
anal@@
taking
ghts
hear@@
right?
kinds
Cer@@
scienzi@@
fotogra@@
succed@@
incontr@@
bet@@
hear
fiel@@
neuro@@
azion@@
detto,
ter.
ering
clu@@
future
princi@@
Im@@
chie@@
dott@@
torn@@
quell'@@
team
countries
let@@
work,
200
cono
lavorare
Possiamo
is.
learned
protec@@
199@@
migliore
corpo
noi.
qualsiasi
vuo@@
ice,
pet@@
shor@@
word
occu@@
stava
front
We@@
exist@@
equ@@
car
ft
Let's
gal@@
vuole
though
Mon@@
stim@@
ident@@
bile,
almente,
itori
feri@@
mezzo
ascolt@@
isn't
now.
conce@@
ward
lif@@
che.
aggi
conosci@@
ragazzi
possible
discus@@
lar@@
read
olo@@
cervell@@
idee
think,
American
princip@@
informazioni
cerc@@
ton@@
ously
visu@@
ot
India
ascin@@
eno@@
sil@@
jour@@
pianet@@
c'era
migliaia
confer@@
able.
ow
decided
want@@
trovato
farlo
ago
De@@
D
America
zi
ined
à@@
conc@@
hai
ò,
sentito
immagine
cy@@
auto@@
uro@@
unque,
esperienza
sec@@
ep
couldn't
mili@@
causa
tura
neur@@
ty
vide@@
y:
organiz@@
turns
lan@@
fro@@
18@@
sbagli@@
porta
ricord@@
family
V
prepar@@
ath
dimension@@
pien@@
ito.
fondament@@
storie
y-@@
here's
ever@@
see,
tecnologi@@
No@@
pictu@@
coli
imagine
back@@
discover@@
ordin@@
health
became
abit@@
radic@@
grup@@
Se@@
dollars
ette
since
fr@@
tà
group
pron@@
Ge@@
salv@@
abbi@@
posi@@
oli
modello
comunic@@
cra@@
meas@@
life,
sto@@
ank
epi@@
cellul@@
numer@@
Ciò
futuro
resul@@
engine@@
trav@@
He@@
Americ@@
divers@@
qui.
effetti
popol@@
scuola
adul@@
ess,
conf@@
ando@@
modell@@
hope
G:
spre@@
sive
succede
Queste
arlo
cominciato
entu@@
intro@@
Bo@@
determin@@
friend@@
bbi@@
vicin@@
gliere
Qui
share
spo@@
exactly
donna
cose.
dovuto
zioni.
remember
sens@@
aro@@
ad,
contro@@
forza
scopri@@
tuo
nome
solut@@
city
tran@@
forc@@
tit@@
anno.
qualunque
answer
thousands
film
psi@@
istru@@
esso,
gna
loo@@
number@@
diseas@@
grazie
cambiamento
surpri@@
relation@@
collec@@
perce@@
chem@@
York
you'll
electr@@
poco
vi,
sed
stop
shap@@
class@@
Oka@@
lor@@
spar@@
pia
famigli@@
vogliamo
soff@@
straordin@@
control
or.
ent,
Ste@@
question@@
0,
spen@@
ando.
semplice
portato
univers@@
fe
ies
job@@
figure
plast@@
terz@@
day.
compar@@
driv@@
nar@@
facil@@
a."
fond@@
tutto,
Ho@@
created
invol@@
HI@@
girl@@
vita,
seconda
model@@
plant@@
audi@@
nucle@@
forma@@
discor@@
cellule
maggi@@
care@@
air
itut@@
batt@@
fort@@
conclu@@
mi,
sometimes
Amer@@
conver@@
patter@@
lim@@
evid@@
noti@@
serie
l'idea
ì.
od,
ber
25
pir@@
vi.
stra
stron@@
head
run
We've
docu@@
complic@@
quad@@
fatti
Credo
course
centur@@
To@@
Bra@@
tic@@
Har@@
Ve@@
tempo,
piccola
desider@@
fast@@
exampl@@
cou@@
"D@@
liter@@
usa
muov@@
somebody
ith
works
st.
stati@@
natu@@
pa
forz@@
cammin@@
interest@@
amazing
scu@@
inspi@@
vir@@
uo@@
aument@@
gior@@
noi,
possibilità
early
Pre@@
complet@@
ual
milit@@
DNA
aggiun@@
compr@@
Hanno
giro
disa@@
mental
identi@@
lling
clin@@
uff@@
anno,
ble.
ely,
ching
Mi@@
see@@
nut@@
libr@@
persone.
macchina
processo
issu@@
ts.
mul@@
posizione
nuovi
paese
Al
process
multi@@
natural
experience
ped
ka@@
cav@@
tipi
chiama
rather
stuff
Ira@@
und,
entire
mind
argu@@
dia
tu
alz@@
Bene,
risor@@
vorrei
eli@@
neg@@
abilit@@
ca,
guid@@
X@@
vor@@
velo@@
iment@@
based
fail@@
today,
At
razione
scienza
Potete
vano
shows
stories
moment
huge
maj@@
ell
web@@
fici
citt@@
vision@@
scre@@
fully
says,
evit@@
del@@
fis@@
etti,
usci@@
struttura
rispetto
adesso
zzi
matter
takes
ideas
ster@@
inde@@
lives
creati@@
Afric@@
rin@@
osa
produ@@
ete,
Unit@@
evi
attiv@@
l'inter@@
picture
year,
som@@
answ@@
as.
ca.
strada
bene.
responsa@@
studenti
basi@@
bility
ply
ences
art
gave
then,
predic@@
vant@@
ener@@
passion@@
buona
ismo
muo@@
Penso
puoi
stop@@
turned
und.
organis@@
ona
scientist@@
lots
befor@@
but@@
communic@@
leave
potrebbero
happen
Ear@@
parol@@
mare
Anche
atura
porto
finanzi@@
stessi
ts,
capac@@
resist@@
prog@@
chiesto
bab@@
temper@@
large
well.
voc@@
children@@
vin@@
conten@@
modi
80
play@@
ks,
moving
isol@@
self-@@
law@@
"The
Yor@@
bene@@
infin@@
Cos@@
fav@@
giorni
sicure@@
campo
build@@
lau@@
ens
500
comple@@
ail@@
guer@@
eggi@@
primi
sti
dentro
elo
z
worked
otten@@
sistem@@
zioni,
!"
sum@@
problems
everybody
ax@@
go.
concentr@@
donn@@
gran
malatti@@
perchè
prender@@
sho@@
terrori@@
futu@@
ily
bit@@
sud@@
taken
sex@@
invit@@
tent@@
gent@@
erebbe
imparare
spazi@@
soprav@@
riman@@
decision@@
Jo@@
prove
smar@@
pract@@
profession@@
A,
oun@@
é,
rispost@@
libro
ations,
ste
government
name
geno@@
ond@@
fare.
scoper@@
così.
sts
self.
crimin@@
Secon@@
cannot
commerci@@
gs
expl@@
research
particular
ling
ele@@
stamp@@
col
difficil@@
inizio
arly
anci@@
ched
busin@@
ct
Internet@@
local
Cor@@
stare
bbe
shed
do?
least
thou@@
M:
view
embr@@
beautiful
colt@@
pubblico
imparato
intorno
devono
dagli
Wi@@
teri@@
als,
bilità
sotto@@
Dobbiamo
interessante
immagini
l'un@@
mass@@
call@@
ys.
challeng@@
emot@@
consi@@
Dov@@
crescita
pio
tempo.
deva
scuol@@
gh,
ention
else
rei
Con
guardare
histor@@
what@@
valu@@
separ@@
laboratori@@
Pu@@
mi.
level@@
during
Tutti
woman
ks.
ance,
ations.
ange
produce
fini@@
phone
Bu@@
se:
Da
ottenere
motivo
lavoro.
Just
convin@@
study
centro
altro.
ingegn@@
pensato
iscono
bene,
days
show@@
provi@@
grav@@
outh
Ju@@
we'll
project
dor@@
lett@@
superfici@@
ci.
esattamente
quar@@
certain
ally.
motiv@@
archit@@
ico.
diment@@
alto
gni
potuto
immedi@@
eas@@
able,
consci@@
Ye@@
atic
giorno,
sapete,
umani
luogo
tech@@
knowled@@
guy
lab@@
san@@
ine@@
potremmo
sistemi
famiglia
known
Here's
given
lev@@
Lu@@
dovremmo
poter@@
avanti
impi@@
eter@@
obvi@@
visit@@
Or
mal
Don@@
confron@@
vacc@@
sce@@
ragion@@
Tutto
usando
futuro@@
este
propria
ices
manag@@
experiment@@
instead
dise@@
behind
deca@@
dy@@
combin@@
hon@@
ece
"A@@
asse
ay
foll@@
happ@@
ered
dovrebbe
Noi
trasform@@
cio@@
ativo
periodo
all'interno
example
saying
tradi@@
metà
gioco
months
lik@@
along
tors
places
essa
parole
Allora
scritto
bambino
profon@@
pressione
physic@@
says
successi@@
today.
dio
render@@
things,
community
doc@@
spend
exper@@
fish@@
posed
comm@@
Chri@@
Then
5,
ad.
prim@@
associ@@
anto
asci@@
anza,
piccoli
natura
follow@@
sh
clear@@
gri@@
seeing
curi@@
ni
saranno
alità
ultimo
concer@@
Do@@
quick@@
dop@@
fru@@
key
felt
d-@@
compon@@
und
ll
ari,
i?
ono,
esa
ando,
parola
realized
conv@@
ential
Mus@@
amin@@
ove
matt@@
sviluppo
ping
structu@@
ters
tool@@
You're
student@@
was,
11
anza.
curr@@
als.
C
ah,
aci@@
seven
ton
with@@
heart
ay@@
virtu@@
sul@@
dirett@@
governo
esplor@@
later,
gh
aliz@@
sound
right,
18
gl@@
began
studio
Tut@@
rebbe
visione
cittad@@
absolut@@
ft@@
People
ey
r.
grand@@
conserv@@
amento.
third
very,
s."
mos@@
zone
madre
full
hand
develop@@
dom
erci@@
lear@@
regol@@
Alcun@@
domande
iche
peopl@@
close
women@@
acti@@
sun@@
Well
rar@@
ammo
frequ@@
poli@@
metri
essero
at.
at,
research@@
chan@@
believ@@
foc@@
feel@@
anta
sco
rifl@@
Perch@@
vogliono
hours
needs
langu@@
ossi@@
itive
Our
Some
flu@@
0
o."
dimen@@
ambiente
questione
lanci@@
là
rebbero
cells
favor@@
duce
tried
king,
powerful
self,
e"
sugg@@
merc@@
arrivare
Ogni
Pens@@
mesi
padre
model
assist@@
common
house
fest@@
Ni@@
log@@
ta,
argo@@
l'in@@
matemat@@
cover@@
perhaps
guys
osa@@
Ver@@
cibo
chi.
guerra
Forse
level
students
ther,
bomb@@
world@@
volu@@
A.
right.
learning
incre@@
they've
prob@@
animali
eci
venire
tante
tanti
flo@@
To
've
fli@@
ust
insiem@@
ranno
health@@
cell
ribut@@
ago.
parti
faccio
needed
trac@@
yet
para@@
imm@@
brea@@
0.
mother
almeno
quantità
dietro
avrei
dimostr@@
mente.
soldi
rest
beg@@
thing@@
pad@@
was@@
Is
happening
sangu@@
amount
ext@@
pie@@
scher@@
pubbl@@
passato
tenere
Earth
source
func@@
Chris
year-@@
photograph@@
Not
omet@@
201@@
atric@@
terra
l'ho
ragione
particolare
parla
pay
it?
increas@@
sle@@
ently
diagno@@
auto
imenti
sacco
tua
telefon@@
differenza
appear@@
sever@@
fra@@
gives
mone@@
deb@@
unds
brought
stic@@
integr@@
sac@@
asp@@
viaggi@@
fa.
anno@@
OK@@
true
black
Or@@
cru@@
ò@@
usato
centinaia
cresci@@
personal
stuff@@
ye@@
cle
tend@@
rece@@
Ben@@
',
emi
Uniti
ram@@
middle
everyone
agre@@
they@@
proto@@
emer@@
vity
100@@
gin@@
perch@@
occhi@@
particol@@
grafic@@
Ger@@
Fi@@
fol@@
condit@@
child
sav@@
difficult
outside
longer
bracci@@
Uno
deciso
jec@@
wonder@@
changed
software
nat@@
coinvol@@
osi
oggi,
economia
anze
ately
corre@@
terms
spent
rul@@
No
...@@
esperi@@
peggi@@
esseri
music
ver,
What's
wonderful
ush@@
job
myself
walk
attac@@
ea
effic@@
lont@@
indietro
frut@@
economic
grow
Here
simply
history
there@@
liz@@
posit@@
idea.
thought,
compi@@
chi,
popolazione
funziona
political
telling
species
act@@
insi@@
fron@@
simul@@
Google
spett@@
occhi
parteci@@
sentire
pho@@
thes@@
go,
ba
preced@@
Do
year.
nego@@
eremo
enorme
vostri
essimo
amici
actually,
ion
intelli@@
prefer@@
traff@@
pit@@
opportunità
nemmeno
pow@@
element@@
ns
Ph@@
lost
mut@@
Pa@@
Africa,
ario.
esser@@
lavoro,
rivolu@@
guardate
ativa
rende
celebr@@
botto@@
tell@@
pped
emerg@@
carri@@
chim@@
eco@@
Pen@@
tti@@
ari.
eranno
attività
ssimo
diventa
He's
technologi@@
dd@@
free
interested
more.
ont@@
blu@@
Vol@@
Ness@@
assolutamente
pensiamo
mic@@
physical
understanding
petro@@
father
Cre@@
capito
cost
ce,
Every@@
past
intu@@
four@@
domin@@
molec@@
partic@@
mit@@
interac@@
pose
language
glie
mondi@@
sopra
divert@@
pubbli@@
detto:
ages
quo@@
countri@@
scale
ining
bun@@
met
espe@@
row
ous.
video@@
ribu@@
asi
centr@@
dett@@
musica
dopo,
forme
migliori
ying,
non-@@
On@@
questions
piano
market@@
int
suon@@
cic@@
farmac@@
developed
ines
giving
ade@@
other.
mot@@
/@@
ving
hold
red@@
zza,
mercato
paura
rendere
disponi@@
faccia
compren@@
wrong
write
news
om
ake
growing
hop@@
arch@@
Mc@@
Cent@@
Vo@@
auti@@
stavo
sarebbero
chiest@@
camp@@
ver
rare
Can
SA
e;
together,
problem.
mak@@
Ac@@
ind@@
tic
On
potenzi@@
estrem@@
loro.
sazione
rima@@
raccol@@
world's
U.S.
again
198@@
Afghanist@@
cancer@@
ster
World
virus
starting
wron@@
words
pac@@
B:
nell@@
azien@@
Dopo
attenzione
ogn@@
compag@@
aiutare
camera
brill@@
really,
represent@@
easy
night
circu@@
plor@@
ezza
sino
arli
endere
volta,
trova
eria
easi@@
ok
tex@@
incredible
ance.
infra@@
happy
buy
tow@@
gram@@
vest@@
format@@
At@@
volevo
aliment@@
arte
termini
poteva
movimento
mis@@
agu@@
dam@@
tel@@
bill@@
babi@@
universe
dg@@
ee
Chin@@
sat@@
ani,
zza.
cose,
scono
passare
azioni.
realtà,
lavorato
imo
David
fundament@@
fish
sitting
well@@
seems
achi@@
ben
bel
Africa.
endo@@
atti
resto
alber@@
sette
buon
megli@@
running
develo@@
ble,
extra@@
cover
artifici@@
hundreds
1,
be,
"M@@
size
rur@@
asc@@
caratter@@
passo
avevamo
bito
giorno.
fronte
risultato
friends
parts
ular
invisi@@
know.
run@@
ous,
organi@@
ink
bast@@
tav@@
amento,
soluzione
vicino
c'erano
consegu@@
emmo
aspetto
e".
together.
gone
nature
citiz@@
animal
ught
ù@@
pensate
tram@@
ora.
attu@@
più.
bilmente
stro
solve
avail@@
ful,
gion@@
Univers@@
Engli@@
quality
ario,
San
distribu@@
assic@@
tecnologie
vanno
linea
Vorrei
cancer
ch.
ck@@
cause
deal
Char@@
again.
ond
gradu@@
perio@@
ring@@
eve
ants
ena
Pos@@
prodotto
fisic@@
dicono
cultura
company
ney
contin@@
responsi@@
succe@@
dig@@
lob@@
a-@@
Let
small@@
gel@@
bloc@@
sw@@
ourselves
Inter@@
auth@@
ana,
programma
atamente
ficare
sustain@@
ignor@@
Ber@@
ID@@
strate@@
sim@@
consum@@
paint@@
orn@@
mont@@
vede
sapete
meccan@@
azioni,
"Non
cent
degre@@
rapid@@
treat@@
oul@@
feeling
structure
recogni@@
tun@@
whatever
that?
dang@@
aria.
bili.
grafi@@
così,
T
resourc@@
loso@@
hospit@@
contest@@
beginning
ow,
leader
racco@@
fossero
friend
John
accoun@@
icip@@
wouldn't
game
ign
uses
she's
api@@
ani.
cancro
abile
sorprend@@
dendo
architec@@
vive
industr@@
certa@@
ions,
Col@@
Brit@@
2,
que@@
ingu@@
ci,
forni@@
iniziare
davanti
permette
connes@@
chiamata
tradit@@
figu@@
creating
plain
70
tol@@
Face@@
segre@@
alta
testa
talmente
tornare
né
sanno
ox@@
designed
Ken@@
allow
psych@@
OK,
dy
era,
free@@
cident@@
umano
Ric@@
performan@@
tail@@
neighbor@@
exce@@
fram@@
save
green
subjec@@
strugg@@
fran@@
ades@@
Chi@@
bli@@
incredibile
fatta
oggi.
ì@@
nice
blood
millions
mod@@
ce.
ders
man,
changing
main
sanit@@
controllo
denar@@
osped@@
ico,
power@@
mortal@@
specific@@
war
present
lic@@
won't
direc@@
atten@@
energi@@
minuti
costruito
strumenti
sping@@
ultima
climate
desi@@
meet@@
lex@@
animals
1,@@
Uni@@
success@@
Ex@@
atter@@
energ@@
companies
foot@@
ans,
cogn@@
chil@@
water,
alg@@
duto
Oggi
impatto
possano
fatto,
riuscit@@
accett@@
sito
punti
step
n't
poor
developing
deli@@
convers@@
assum@@
alis@@
story.
tend
moved
y."
ening
gas
Californi@@
interpre@@
rou@@
dedic@@
speriment@@
andato
pericolo@@
modo,
soprat@@
gram
particul@@
e?"
rai@@
feed@@
consist@@
culture
ite.
dem@@
risultati
prodotti
parlato
nessun
mac@@
manu@@
eat
el,
ran
autom@@
force
hun@@
fall@@
image
fine,
scat@@
storia.
pochi
qualità
molto,
Ero
mic
who's
wrote
actu@@
ush
quant@@
otto
music@@
endo.
avrebbero
veder@@
aziende
Stat@@
States
likely
bed
simpl@@
realize
planet
of,
't
eight
towards
ground
Er@@
scap@@
era.
mani
costo
democrazi@@
obiettiv@@
liamo
ghiacci@@
Ti@@
system,
benef@@
lled
ically,
born
s'
die
idea,
dif@@
inate
Hu@@
scrivere
ecc@@
scala
pianeta
situazione
cosa.
cura
fri@@
suggest@@
begin@@
flow@@
themselves
gic
Can@@
agri@@
C'@@
molta
universo
ancor@@
vogli@@
sola
dà
nessuna
through@@
focus
tells
altern@@
parents
ions.
showed
ordinary
son,
eler@@
anyone
"W@@
usu@@
ful.
facile
approc@@
malattie
adatt@@
valore
cuore
pri
extremely
abor@@
It@@
ight
piec@@
es?
religi@@
vulner@@
stupi@@
superi@@
gol@@
solito
ficio
tutto.
hour@@
ulti@@
enou@@
orno
attraver@@
piamo
vers@@
esempi@@
risult@@
hundre@@
“@@
Ci@@
?@@
fos@@
esem@@
ich
c'@@
qualc@@
ness@@
net
svilu@@
ould
luo@@
month@@
oi
ybe
inste@@
fter
publi@@
ther.
bamb@@
gover@@
cib@@
thous@@
underst@@
mette
ign@@
ned
mente,
hou@@
DN@@
tti
doll@@
spon@@
q@@
pian@@
ple
bus@@
più@@
stre
imes
ven
–
ful@@
chall@@
hal@@
U.@@
rapi@@
cour@@
ession@@
hap@@
lizz@@
%@@
S.
posta
now@@
attr@@
sourc@@
Joh@@
ably
mad@@
intell@@
sb@@
need@@
whe@@
razi@@
Q@@
appe@@
remem@@
heal@@
osci@@
Goog@@
seem@@
etro
uscit@@
ain
beauti@@
lon@@
beli@@
fici@@
child@@
bbero
full@@
ind
alth
right@@
amaz@@
that@@
sull@@
citi@@
grazi@@
bero
ur
miliar@@
P
arch
L
probabi@@
uomin@@
Wor@@
rem@@
giun@@
ile
atori@@
ready
sult@@
youn@@
unqu@@
econo@@
demo@@
]@@
azi@@
sare@@
$@@
evi@@
risp@@
dell@@
quell@@
A:
muc@@
canc@@
buil@@
ace@@
obi@@
prodo@@
fant@@
labor@@
agg@@
indi,
ken
Pe@@
elet@@
”
reali@@
&@@
stem
They@@
:@@
immag@@
won@@
nolo@@
Quest@@
nov@@
cellu@@
lmente
etting
year@@
gn
ggi
anis@@
altr@@
softw@@
ouldn't
psy@@
litt@@
°
X
igh@@
M
B
alter@@
ld
ans@@
beh@@
difficul@@
realt@@
sai@@
q
clim@@
pena
ghi@@
amer@@
spit@@
understand@@
;@@
opl@@
ands
compani@@
vu@@
v
interno
lea@@
nec@@
nem@@
tecnolo@@
thir@@
bloo@@
oggi@@
who@@
sof@@
diag@@
fut@@
ampl@@
nex@@
K
!@@
gy
G
pre
stem@@
”@@
R
kes
♫@@
photogra@@
icul@@
N
acco
etter
..@@
wards
ell,
terr@@
U
cco
kno@@
hist@@
sic
phys@@
mber
midd@@
somet@@
amoun@@
forman@@
sano
esatt@@
coul@@
phy@@
assolut@@
aia
cerv@@
togra@@
abbast@@
Ever@@
engin@@
omen
ped@@
haps
Grazi@@
cal
vul@@
again@@
’
setti@@
diffici@@
acro@@
centin@@
nuc@@
self@@
recogn@@
ff
F
commer@@
inte@@
tuto
Tran@@
+
Y
nee@@
sopr@@
/
á@@
script@@
í@@
alcun@@
TE@@
@@@
ample
tto@@
Davi@@
indu@@
ppo
extrem@@
 @@
H
ced@@
Afgh@@
led@@
worl@@
does@@
til
Q
svi@@
attro
biamo
ó@@
dispon@@
ú
selves
«@@
…
Vor@@
betwe@@
sour@@
_@@
matem@@
throu@@
mber@@
wro@@
=
á
sempl@@
Let@@
—@@
stain@@
toge@@
Z
cele@@
envi@@
#@@
entist@@
ere's
É
Af@@
dren
ö@@
cus
cun@@
ç@@
)
$
tty
j
blem@@
+@@
[
ou
detto@@
»
W
fund@@
Ѐ
utto@@
@@
exact@@
Sub@@
lem
ã@@
parte@@
neigh@@
J
ó
alk
í
diffic@@
°@@
´@@
avigli@@
're
anist@@
­@@
siasi
impat@@
»@@
portun@@
vidu@@
piutto@@
dn't
(@@
I'@@
ü@@
obbiamo
Dop@@
*@@
titles
econ@@
ñ@@
ften
Possi@@
=@@
eccan@@
rought
ä@@
อ@@
aliforni@@
egn@@
coup@@
ï@@
at's
–@@
‘@@
Á@@
ø@@
ร@@
่@@
ê@@
_
*
È@@
´
…@@
@@
ū@@
ī@@
pub@@
ú@@
ë@@
ย@@
rese@@
º@@
£@@
“
º
ć
vie@@
ā@@
ā
â@@

˚
^@@
́@@
indi
¿@@
♪@@
 
​@@
@@
ć@@
ô@@
^
¼

ŧ@@
²@@
û
`
ë
ย
ѐ
́

¥
½
technolo@@
¾
﻿@@
ȏ@@
²
bbiamo
‒@@
‘
