a 81909
the 77887
de 66062
to 49227
of 45542
and 44599
in 34702
să 33688
în 33009
that 29887
I 25696
is 25607
o 24036
care 22447
că 21487
la 21094
și 20674
at 20530
e 20134
it 19851
you 19799
, 19170
. 19132
şi 18694
are 18284
un 17987
we 17754
pe 17002
And 16696
re@@ 16521
cu 16006
-- 15591
in@@ 14734
mai 14734
nu 14683
pentru 14448
din 14414
this 14330
i 14081
ce 13873
am 13475
ul 13352
i@@ 12432
s 12421
s@@ 12006
se 11995
on 11950
e, 11835
e. 11759
n@@ 11725
was 11474
este 11331
-@@ 11310
t@@ 11272
for 11151
e@@ 10937
de@@ 10897
S@@ 10851
al@@ 10768
al 10496
have 10325
ă 10274
ing 10273
f@@ 10147
ca 10115
b@@ 10006
an@@ 9970
o@@ 9762
or 9717
p@@ 9432
with 9423
en@@ 9135
st@@ 9069
d@@ 9063
u@@ 9021
"@@ 8993
c@@ 8991
an 8886
ar@@ 8864
at@@ 8802
es 8659
ac@@ 8647
as 8624
r@@ 8499
g@@ 8489
: 8426
ed 8359
t 8312
they 8311
i, 8311
s. 8295
un@@ 8284
it@@ 8266
or@@ 8248
s, 8203
? 8191
be 8190
a@@ 8145
au 8068
ă. 8006
can 8004
er@@ 7962
about 7942
l@@ 7913
sunt 7837
what 7762
i. 7660
z@@ 7595
a, 7538
ele 7436
ă, 7430
A@@ 7376
el@@ 7324
a. 7284
în@@ 7191
ii 7175
all 7167
C@@ 7153
M@@ 7131
y 7130
So 7127
ate 7028
ic@@ 6979
v@@ 6910
m@@ 6804
not 6783
on@@ 6765
h@@ 6724
ar 6704
one 6694
te 6486
y@@ 6396
con@@ 6360
am@@ 6346
B@@ 6315
my 6218
di@@ 6199
er 6175
as@@ 6142
le 5975
from 5965
do 5962
fost 5924
ă@@ 5902
T@@ 5829
k@@ 5758
te@@ 5733
fi 5721
im@@ 5702
like 5679
but 5583
our 5572
ie 5571
so 5553
ne 5543
il@@ 5518
ți 5441
w@@ 5435
it's 5417
y, 5334
D@@ 5315
just 5261
to@@ 5235
ap@@ 5217
is@@ 5145
ur@@ 5133
P@@ 5067
ei 5025
d, 5010
ma@@ 5006
d 5001
people 4980
co@@ 4951
R@@ 4937
ol@@ 4888
Şi 4873
despre 4871
cre@@ 4863
very 4832
sau 4829
these 4813
But 4808
The 4807
cum 4784
t. 4774
ile 4769
ia 4767
ăm 4765
când 4762
ale 4710
if 4706
pre@@ 4683
by 4660
y. 4639
area 4602
tr@@ 4590
et@@ 4590
ţi 4577
ș@@ 4543
ex@@ 4542
dar 4518
E@@ 4500
es, 4452
." 4448
going 4438
ului 4433
d. 4427
ul@@ 4394
va 4389
ad@@ 4375
foarte 4364
om@@ 4348
dacă 4333
L@@ 4312
pl@@ 4311
ti@@ 4306
Dar 4296
asta 4279
t, 4275
when 4265
ro@@ 4261
out 4247
ț@@ 4247
Și 4210
ne@@ 4202
mo@@ 4201
no@@ 4190
os@@ 4137
G@@ 4113
li@@ 4105
ab@@ 4101
because 4089
We 4067
N@@ 4037
ş@@ 3998
had 3983
us@@ 3980
ţ@@ 3976
how 3970
ea 3961
more 3954
pro@@ 3952
which 3933
sa 3926
me 3904
your 3903
get 3873
F@@ 3857
their 3854
m 3852
ch@@ 3768
I@@ 3766
ec@@ 3764
H@@ 3743
vă 3743
es@@ 3733
ilor 3727
es. 3723
were 3705
um@@ 3672
he 3666
up 3665
th@@ 3662
ts 3660
po@@ 3659
us 3653
there 3648
would 3623
think 3615
u 3602
ent 3577
acest 3556
really 3555
ent@@ 3537
O@@ 3514
Nu 3506
see 3497
for@@ 3476
I'm 3475
com@@ 3472
who 3462
str@@ 3457
ra@@ 3436
ice 3431
Am 3428
em@@ 3401
face 3386
it. 3379
ation 3368
uri 3360
It's 3330
1@@ 3325
This 3322
ic 3317
si@@ 3260
j@@ 3246
fi@@ 3245
iz@@ 3234
ea@@ 3224
some 3223
has 3222
ly 3216
sp@@ 3214
tre@@ 3214
ată 3206
ist@@ 3194
era 3181
l 3173
doar 3169
do@@ 3167
În 3164
ag@@ 3151
k 3146
A 3135
ut@@ 3134
par@@ 3128
where 3117
into 3098
le@@ 3087
ri@@ 3085
♫ 3046
ter@@ 3031
V@@ 3016
aceste 3005
„@@ 2998
then 2992
car@@ 2982
don't 2964
W@@ 2954
actually 2947
them 2923
poate 2920
această 2913
sc@@ 2911
It 2905
ând 2901
will 2895
g 2892
mă 2868
mult 2862
ing@@ 2849
that's 2849
ha@@ 2847
ci@@ 2831
si 2830
col@@ 2810
fac@@ 2805
pi@@ 2805
cu@@ 2802
ţi@@ 2791
ast@@ 2790
ir@@ 2753
lo@@ 2751
ți@@ 2749
ing. 2748
se@@ 2738
know 2724
ing, 2720
ers 2712
could 2711
tion 2710
ine 2702
trebuie 2696
c 2688
J@@ 2672
make 2667
fo@@ 2661
ve@@ 2654
ează 2654
You 2652
been 2648
per@@ 2647
bo@@ 2646
want 2641
it, 2634
ig@@ 2626
ică 2623
su@@ 2611
u, 2575
p 2573
K@@ 2559
n 2551
vo@@ 2547
ity 2541
dintre 2528
ală 2524
ceva 2518
ve 2509
prin 2507
ta@@ 2504
ce@@ 2494
able 2491
vi@@ 2480
other 2480
go 2467
ite 2465
ăr@@ 2464
me@@ 2460
min@@ 2457
cl@@ 2452
ver@@ 2450
way 2423
putea 2411
's 2392
chiar 2391
; 2379
than 2377
est@@ 2368
ceea 2365
E 2349
rea 2347
op@@ 2345
ie@@ 2338
man@@ 2332
ted 2319
2@@ 2318
tu@@ 2311
ai 2311
gen@@ 2300
3@@ 2292
In 2290
ally 2286
those 2283
er, 2273
pot 2273
ob@@ 2271
cur@@ 2268
De 2244
qu@@ 2230
at. 2229
ul. 2224
iar 2224
ști@@ 2220
toate 2216
al, 2212
te. 2188
things 2184
his 2182
ide@@ 2181
ev@@ 2168
something 2164
got 2163
ta 2162
el 2161
te, 2156
They 2154
s-a 2152
multe 2147
little 2122
ân@@ 2119
inter@@ 2109
fie 2106
are. 2102
cr@@ 2092
ou@@ 2091
TED 2082
bi@@ 2080
ds 2079
noi 2079
unde 2074
ori@@ 2072
be@@ 2070
- 2065
so@@ 2063
we're 2060
al. 2057
im 2049
time 2046
spun@@ 2042
pă@@ 2039
ați 2039
ven@@ 2035
er. 2034
ră@@ 2034
u. 2033
also 2023
esc 2022
pe@@ 2019
plan@@ 2017
first 2017
ici@@ 2015
look 2015
use 2006
din@@ 2000
two 1998
no 1993
over 1988
wh@@ 1987
ut 1984
la@@ 1980
fe@@ 1977
tin@@ 1973
gre@@ 1972
go@@ 1970
age 1968
years 1957
oameni 1956
.@@ 1955
only 1954
ge 1952
h 1951
ere 1947
re, 1943
ani 1943
ori 1943
avem 1931
fel 1927
gr@@ 1926
now 1924
sur@@ 1923
pr@@ 1921
zi@@ 1919
most 1913
lui 1913
af@@ 1911
ho@@ 1908
acum 1903
mare 1901
re. 1899
ții 1894
even 1889
putem 1888
sh@@ 1886
at, 1878
need 1875
ită 1874
dat@@ 1872
mi@@ 1871
tă 1871
şti@@ 1871
da@@ 1865
bl@@ 1861
cel 1858
du@@ 1856
der@@ 1853
re 1845
tur@@ 1843
lea@@ 1840
az@@ 1837
k, 1830
lu@@ 1830
br@@ 1825
ul, 1820
much 1818
cul@@ 1818
back 1816
en 1816
prim@@ 1816
num@@ 1815
lin@@ 1813
tot 1799
ph@@ 1797
oamenii 1797
ant 1790
" 1786
What 1785
au@@ 1784
tul 1780
you're 1779
mar@@ 1776
'@@ 1774
abil@@ 1774
thing 1768
vor 1765
itatea 1763
pu@@ 1761
here 1760
kind 1759
many 1754
Iar 1754
red 1751
or. 1748
voi 1742
gu@@ 1740
ect@@ 1737
cele 1735
ib@@ 1734
itate 1733
new 1732
take 1731
zi 1729
lot 1720
Dacă 1719
ks 1716
ere@@ 1713
is, 1713
sol@@ 1712
world 1711
its 1710
4@@ 1704
ding 1699
eu 1695
ous 1691
fiecare 1684
elor 1682
făcut 1680
she 1676
există 1673
em 1672
ară 1669
ical 1664
are, 1663
ten@@ 1655
or, 1654
aţi 1651
come 1646
fin@@ 1646
bun@@ 1643
?" 1639
sa@@ 1638
decât 1637
we@@ 1636
th 1634
cap@@ 1632
Talk 1630
sec@@ 1629
put 1625
said, 1621
x@@ 1620
ter 1619
timp 1615
there's 1613
într-un 1608
are@@ 1604
mul@@ 1596
cea 1596
work 1593
cor@@ 1591
through 1589
Subtitles 1588
Transcript: 1588
sen@@ 1580
fac 1578
jo@@ 1577
fr@@ 1576
după 1576
So, 1568
imagin@@ 1567
! 1557
iti@@ 1553
leg@@ 1552
ţii 1552
lucr@@ 1546
every 1543
tal@@ 1538
dr@@ 1536
ting 1534
că@@ 1533
on. 1531
ated 1530
ca@@ 1529
et 1523
An@@ 1523
gener@@ 1519
ări 1514
rec@@ 1512
schimb@@ 1508
lucru 1506
ci 1503
mon@@ 1502
ge@@ 1500
different 1499
într-o 1499
they're 1495
being 1494
eg@@ 1491
cred 1489
tel@@ 1488
Deci 1486
av@@ 1484
oc@@ 1483
Asta 1482
Now, 1481
did 1480
her 1478
around 1477
mat@@ 1476
right 1475
ați@@ 1475
două 1467
cer@@ 1466
on, 1464
urile 1462
same 1457
den@@ 1456
ind 1455
If 1454
k. 1453
U@@ 1453
est 1451
avea 1446
întreb@@ 1439
sho@@ 1436
ent. 1434
ved 1431
trans@@ 1431
any 1428
În@@ 1428
rel@@ 1424
alt@@ 1416
og@@ 1415
know, 1415
olog@@ 1413
aliz@@ 1410
ef@@ 1406
sub@@ 1404
ed@@ 1403
ic. 1400
fl@@ 1396
men@@ 1390
apoi 1390
atât 1389
aj@@ 1388
aici 1386
good 1382
cei 1377
important 1374
până 1373
b 1372
vis@@ 1372
Este 1371
mor@@ 1364
5@@ 1364
pt@@ 1362
7@@ 1358
tic@@ 1357
and@@ 1357
ati@@ 1356
loc 1354
fic@@ 1345
econom@@ 1339
cel@@ 1339
ica 1337
ely 1336
king 1336
ate, 1333
lum@@ 1331
parte 1330
-au 1329
cal@@ 1328
por@@ 1327
10 1324
ant@@ 1324
îl 1320
w 1319
studi@@ 1318
aţi@@ 1317
vre@@ 1316
ez@@ 1315
orul 1314
facem 1312
9@@ 1309
called 1308
fer@@ 1308
an, 1305
mil@@ 1302
lumea 1301
început 1298
cât 1297
ța 1296
lucruri 1294
6@@ 1292
id 1290
I've 1290
Now 1290
atunci 1289
ului. 1287
wor@@ 1286
ep@@ 1285
pa@@ 1285
gra@@ 1283
ate. 1282
ment 1280
nu@@ 1279
mea 1279
val@@ 1278
ari@@ 1277
ță 1276
prin@@ 1271
ata 1270
made 1269
gh@@ 1269
nevoie 1267
ină 1266
ary 1263
Ce 1263
Un@@ 1260
asta. 1257
fapt 1255
form@@ 1253
ani, 1253
down 1252
unui 1251
ded 1246
ris@@ 1244
produc@@ 1243
lor 1243
can@@ 1242
medi@@ 1240
ren@@ 1239
0@@ 1238
uc@@ 1236
ch 1235
that, 1233
ation. 1233
h, 1232
doing 1230
păr@@ 1228
pas@@ 1223
famil@@ 1223
ation, 1222
alte 1222
ect 1221
ce. 1220
unul 1218
e-@@ 1217
des@@ 1216
e? 1214
îm@@ 1213
ach@@ 1211
He 1208
you. 1207
ent, 1205
ea. 1205
spune 1205
vie@@ 1204
mod 1204
Sunt 1202
fil@@ 1198
ăt@@ 1198
îi 1198
Al@@ 1197
That's 1197
ion@@ 1197
m, 1195
ția 1194
ran@@ 1193
sim@@ 1192
pol@@ 1188
ea, 1186
pan@@ 1184
folos@@ 1184
ces 1182
three 1182
mic@@ 1182
tell 1181
ill@@ 1178
fa@@ 1177
loc@@ 1176
speci@@ 1175
ying 1173
find 1173
x 1173
ang@@ 1172
ui 1172
că, 1172
dic@@ 1169
tat@@ 1168
tă@@ 1168
wa@@ 1163
bu@@ 1161
ic, 1161
Pentru 1160
gi@@ 1159
cas@@ 1159
fără 1155
tră@@ 1153
Th@@ 1151
... 1148
mân@@ 1148
ţă 1146
real@@ 1141
ni@@ 1137
didn't 1137
ție 1134
unei 1133
z 1128
human 1127
place 1126
ke@@ 1125
tic 1125
ţa 1125
câ@@ 1125
To@@ 1124
ei. 1122
ser@@ 1120
aşa 1116
Ei 1113
the@@ 1112
așa 1112
why 1111
har@@ 1110
ban@@ 1109
life 1109
continu@@ 1107
19@@ 1107
cin@@ 1104
struc@@ 1104
peste 1104
used 1100
cit@@ 1099
-o 1099
res@@ 1097
ally, 1096
cen@@ 1096
ly, 1092
ului, 1092
O 1090
să@@ 1089
câteva 1088
vom 1087
sun@@ 1086
Si 1085
In@@ 1084
might 1082
spun 1082
rap@@ 1078
son@@ 1076
o, 1073
dis@@ 1073
bine 1071
," 1070
soci@@ 1069
trebui 1068
aș@@ 1065
avut 1064
e: 1063
căr@@ 1062
mer@@ 1061
dat 1060
io@@ 1059
medic@@ 1059
last 1058
went 1055
mis@@ 1054
ii. 1054
after 1051
pres@@ 1051
nici 1051
pos@@ 1050
Când 1050
say 1048
started 1048
ain@@ 1047
There 1045
ită@@ 1045
â@@ 1044
ase 1043
talk 1042
exist@@ 1041
war@@ 1040
ei, 1039
percent 1037
ate@@ 1037
bine, 1036
5 1034
una 1034
ți, 1034
desig@@ 1032
ii, 1031
ating 1029
ug@@ 1029
should 1028
eze 1028
spus 1028
give 1027
der 1027
own 1026
we've 1025
pat@@ 1025
tive 1025
wat@@ 1023
res 1023
tim@@ 1020
Thank 1019
Y@@ 1019
priv@@ 1018
ce, 1017
erau 1017
luc@@ 1016
od 1015
ose 1013
igh@@ 1011
aceasta 1010
8@@ 1009
difer@@ 1009
ity. 1008
organiz@@ 1007
pen@@ 1005
person@@ 1000
fapt, 999
ans 998
id@@ 998
day 997
great 996
20 996
,000 995
never 993
comun@@ 993
vin@@ 991
disc@@ 989
bit 987
tra@@ 987
m. 986
me, 983
Well, 983
ons 983
ations 983
suntem 982
informa@@ 981
ents 979
oper@@ 978
interes@@ 977
in, 975
trei 975
tiv@@ 973
any@@ 972
bil@@ 971
o. 970
țion@@ 970
activ@@ 969
Așa 968
big 965
Mar@@ 964
don@@ 963
dev@@ 962
end 962
problem@@ 961
disp@@ 961
simpl@@ 960
us. 958
change 957
can't 956
meu 956
vedea 956
all@@ 952
ve. 952
rest@@ 951
up@@ 950
ar, 950
of@@ 949
Aşa 948
.” 947
Ch@@ 945
off@@ 944
bra@@ 942
et. 942
expl@@ 940
each 940
tor@@ 939
răspun@@ 939
ţie 939
-i 938
an. 937
prea 937
-am 934
next 932
When 932
acea 931
ess@@ 929
uz@@ 929
îmi 929
few 928
ist 928
start 927
200@@ 927
50 926
f 926
ity, 925
da 924
ţia 924
ies 921
ance 920
itat@@ 920
țin@@ 920
us, 919
ble 919
still 918
ed, 917
cam@@ 917
show 916
say, 915
idea 915
ei@@ 915
ip@@ 911
Ar@@ 911
ile, 910
ale, 910
asupra 908
inst@@ 906
bur@@ 905
r 904
sk@@ 903
experien@@ 902
pun@@ 902
gro@@ 899
Wh@@ 898
ajut@@ 898
ion 897
et, 897
asta, 897
educ@@ 896
eri@@ 895
und@@ 895
une 894
tri@@ 893
looking 892
direc@@ 892
st 889
oth@@ 888
ale. 888
this. 887
low@@ 886
ative 886
does 884
came 884
ile. 883
ed. 882
part 882
Pro@@ 882
How 880
pic@@ 880
another 879
ice. 879
acesta 879
astfel 878
data 877
try 877
gă@@ 877
rez@@ 876
Acesta 876
als 874
between 873
ani. 873
orice 873
toată 872
better 870
bor@@ 869
That 868
univers@@ 868
ice, 866
sup@@ 866
care@@ 864
aş@@ 864
spre 863
ţion@@ 863
ște 862
that. 860
found 858
3 858
sor@@ 858
body 856
de, 855
ight 855
erea 855
ţi, 855
mem@@ 854
ști 854
man 853
ală. 852
Vă 852
old 851
şte 850
polit@@ 849
evolu@@ 849
societ@@ 847
dez@@ 846
buc@@ 845
ina 843
Cum 843
solu@@ 841
clas@@ 841
lan@@ 840
ke 840
pri@@ 840
ever 838
ther 837
prof@@ 837
altă 836
over@@ 835
od@@ 835
proces@@ 833
um 831
control@@ 829
4 829
înseamnă 828
vreau 828
doesn't 827
dă 825
între 825
uit@@ 823
cân@@ 823
os 822
in. 821
sion 821
chi@@ 821
ise 818
ti 818
tion@@ 817
using 816
real 815
a? 814
them. 813
încă 813
acel@@ 812
întâmpl@@ 812
this, 811
natur@@ 811
mă@@ 809
aproape 809
ore 808
oare 808
cam 807
ey@@ 806
Po@@ 806
sel@@ 805
bol@@ 805
abor@@ 804
sort 804
bat@@ 804
uman@@ 803
ilor. 803
Acum 803
hel@@ 802
sta@@ 802
ave@@ 801
intr@@ 800
inte@@ 798
La 798
dus 798
urm@@ 798
tea 797
acel 797
tion. 796
m-am 796
,@@ 795
mine 794
om 792
wanted 791
ked 791
adevăr@@ 791
ime 789
cho@@ 788
ani@@ 787
făcu@@ 787
plă@@ 787
itu@@ 785
ara 785
dur@@ 785
şti 785
ver 784
ator@@ 784
mus@@ 784
lă@@ 783
eam 782
tions 780
% 780
he@@ 779
Se 779
thought 776
Because 776
prima 776
ws 775
ol 775
ot@@ 775
ării 773
New 772
pare 772
world. 771
lun@@ 771
call 770
ele. 770
sal@@ 768
i-a 768
ală, 766
acest@@ 766
cineva 765
time, 764
Deci, 763
emo@@ 762
-a 762
Con@@ 761
test@@ 760
sin@@ 760
ese 759
dri@@ 758
off 758
cop@@ 758
less 758
alt 758
ture 757
low 757
ings 756
situ@@ 754
me. 754
de. 753
profes@@ 753
net@@ 752
ves 752
destul 752
duce 751
lip@@ 751
arti@@ 750
sul 750
may 749
ez 749
ities 749
mag@@ 749
some@@ 748
acolo 748
always 747
met@@ 747
dezvolt@@ 747
happen@@ 746
plac@@ 745
pute@@ 744
il 743
30 743
constru@@ 743
ilor, 743
viit@@ 743
said 742
20@@ 742
ici 742
understand 741
ment@@ 741
before 740
înt@@ 740
ți. 740
ational 739
2 739
ve, 739
Aceasta 739
Să 739
ell@@ 738
sem@@ 738
bas@@ 737
ear 737
popul@@ 736
ess 736
Un 736
ator 735
dre@@ 734
technolog@@ 734
tehnolog@@ 734
aț@@ 734
ază 733
what's 732
trying 732
model@@ 732
ările 732
-ar 732
ze 731
moment 731
copi@@ 731
our@@ 730
inv@@ 730
contr@@ 729
star@@ 729
whole 728
sure 727
long 726
bro@@ 725
time. 724
[@@ 723
vede@@ 723
timpul 723
pac@@ 722
ast 722
ajun@@ 722
fur@@ 721
ill 721
încer@@ 721
milioane 720
văzut 719
high@@ 718
ence 717
materi@@ 717
create 716
lucrurile 715
ers, 714
gă 714
orii 714
live 713
way, 713
work@@ 713
gem 712
arată 711
invest@@ 710
ving 709
gl@@ 709
ish@@ 709
ligh@@ 709
fel@@ 708
mas@@ 708
ace 708
ier@@ 707
ear@@ 706
fact, 706
stre@@ 705
hom@@ 704
calcul@@ 704
hea@@ 702
mod@@ 702
ali@@ 702
” 702
facă 702
unc@@ 701
feel 701
nor@@ 701
cum@@ 700
fic 700
working 700
is. 699
tion, 699
glob@@ 697
bac@@ 697
mi-a 696
stră@@ 695
Ma@@ 694
fir@@ 694
apar@@ 693
ber@@ 693
eau 692
Cred 692
hi@@ 691
Z@@ 691
regul@@ 689
v 689
ace@@ 688
Trebuie 688
ud@@ 687
func@@ 687
00 687
cost@@ 686
stat@@ 686
scri@@ 686
inț@@ 686
viz@@ 685
poz@@ 685
lume 685
million 684
There's 684
thing. 684
ar. 684
ner@@ 683
brain 683
6 683
th. 683
him 682
ish 679
biolog@@ 679
0, 678
Ne@@ 678
Co@@ 678
săr@@ 678
ach 676
four 676
ning 675
han@@ 675
ație 675
wi@@ 674
ane 674
s-au 674
help 673
deci@@ 673
-l 673
vâr@@ 673
form 672
De@@ 672
vari@@ 671
noastră 671
frum@@ 671
social 670
th, 669
ics 669
bă@@ 669
muz@@ 668
there. 667
one. 667
eri 667
ful 665
sha@@ 665
dor@@ 665
anim@@ 665
wee@@ 664
you, 664
took 664
vir@@ 663
maybe 661
robo@@ 661
ga@@ 660
100 657
defin@@ 657
aţ@@ 657
program@@ 656
ele, 656
acele 656
act 655
întâmplă 655
'd 654
vedem 654
I'd 652
believe 652
posibil@@ 652
mark@@ 651
dată 651
ition 650
os. 650
design 649
comes 649
My 649
ma 649
vrea 649
let 648
zon@@ 648
set 647
noastre 647
TED@@ 646
cat@@ 646
imen@@ 646
getting 645
pus 645
eram 645
part@@ 644
w, 642
way. 642
desc@@ 642
ridic@@ 642
become 641
pt 641
y? 641
mu@@ 640
quite 640
cir@@ 640
aţie 640
7 639
bar@@ 639
stor@@ 638
căl@@ 638
ească 638
love 637
making 637
♪ 637
uri, 637
neur@@ 636
ther@@ 636
sion@@ 636
ins 635
dro@@ 635
chang@@ 635
boo@@ 635
fre@@ 634
I'll 634
ui@@ 634
poți 634
bel@@ 633
world, 633
sta 632
tele 632
imagine 631
Indi@@ 631
Americ@@ 631
inţ@@ 631
per 630
oas@@ 630
esc. 630
pur@@ 629
here, 629
adă 629
ică, 628
cercet@@ 628
ător@@ 627
Au 627
story 626
tit@@ 626
ans@@ 626
ţin@@ 626
putern@@ 625
n, 623
en, 623
tw@@ 622
dec@@ 622
done 620
micro@@ 620
nam@@ 620
". 620
These 619
sum@@ 619
super@@ 619
prom@@ 619
course, 619
lat@@ 619
ped 618
se. 617
ă? 617
să-l 617
them, 615
year 615
too 615
arm@@ 615
a: 615
mit@@ 614
sus@@ 614
here. 613
read@@ 612
oric@@ 611
Cu 611
vorb@@ 611
technology 610
minu@@ 610
uni@@ 610
nou@@ 610
ers. 609
dent 608
stic@@ 608
out@@ 607
act@@ 607
] 606
ente 606
i? 606
realiz@@ 605
tura 604
water 603
bir@@ 603
minun@@ 603
adu@@ 602
cra@@ 602
bal@@ 602
aș 602
ory 601
tor 601
proiect@@ 601
ep 600
compan@@ 600
individu@@ 599
without 599
now, 598
power 598
put@@ 598
ds, 598
ată. 598
-vă 598
numai 598
încât 598
ţi. 598
consum@@ 596
obi@@ 596
prieten@@ 596
ică. 596
ple 595
wn 595
ak@@ 595
motiv@@ 595
und 594
point 594
means 593
tip@@ 593
uni 593
ația 593
puțin 593
one, 592
turi 592
nou 592
primul 592
suc@@ 591
spec@@ 591
ero@@ 590
tează 590
înainte 590
l-am 590
ard 589
les 589
ne-am 589
out, 588
sug@@ 588
venit 588
every@@ 587
aw@@ 587
ie, 587
light 586
told 585
ativ@@ 585
ie. 585
environ@@ 584
Chin@@ 584
nici@@ 584
pla@@ 583
equ@@ 583
unea 582
irea 582
inten@@ 581
către 581
ick@@ 580
hard 580
reg@@ 580
baz@@ 580
itul 580
makes 579
ors 579
jur@@ 579
prote@@ 579
atr@@ 579
uș@@ 579
propri@@ 578
number 578
atu@@ 578
system 578
electr@@ 578
atur@@ 578
sub 578
list@@ 577
Acum, 577
adevărat 577
years, 575
char@@ 575
duc@@ 574
ong@@ 574
such 574
ates 574
get@@ 572
centr@@ 572
small 571
rează 571
build 570
nea@@ 570
partea 570
One 569
problem 569
a-@@ 569
nostru 569
ala 568
ere, 567
ându-@@ 567
best 566
mom@@ 566
tat 566
across 565
talking 565
five 565
ad 565
prezent@@ 565
ps 564
ue 564
coun@@ 564
him@@ 564
.000 563
ajuns 563
seama 563
Africa 562
trat@@ 561
vizi@@ 561
interac@@ 560
s? 560
să-i 560
women 559
fem@@ 559
utiliz@@ 559
prez@@ 559
înţel@@ 559
st, 558
Ast@@ 558
t? 557
ultim@@ 557
bun 557
Avem 557
ask 556
sig@@ 556
system@@ 556
As 556
ur 556
poţi 556
asemenea 556
tar@@ 555
reas@@ 555
ini@@ 555
distr@@ 555
he's 554
nec@@ 554
larg@@ 554
astr@@ 554
acestea 554
probably 553
sex@@ 553
transform@@ 553
observ@@ 553
probabil 553
de-a 551
se, 550
pretty 550
fun@@ 550
Par@@ 550
zil@@ 550
oz@@ 550
ping 549
ash@@ 549
ous@@ 549
pati@@ 549
țe 549
crede@@ 549
if@@ 548
possi@@ 548
school@@ 548
cont@@ 548
persoan@@ 548
mic 547
ry 546
consider@@ 546
le-am 546
ații 546
ses 545
stand@@ 545
We're 545
mari 545
mach@@ 544
deoarece 544
en. 543
For 543
const@@ 542
big@@ 542
sing 542
locu@@ 542
respon@@ 541
well 541
limb@@ 541
ub@@ 540
together 539
public 539
n. 539
sit@@ 539
bin@@ 538
măr@@ 538
anti@@ 537
ric@@ 537
sistem@@ 537
devenit 537
computer@@ 536
mulți 536
aici. 536
unii 536
mult. 536
aur@@ 535
post@@ 535
ual 535
radi@@ 534
Nor@@ 534
ite. 534
iei 534
pul@@ 533
sist@@ 533
question@@ 533
scen@@ 533
clim@@ 532
Stat@@ 532
ism 532
extraordin@@ 532
oare@@ 532
abil 532
serv@@ 531
person 531
people, 531
planet@@ 531
mele 531
No@@ 530
itate. 530
alul 530
anul 530
cut 529
tip 529
între@@ 529
odată 529
all, 528
thre@@ 528
importan@@ 528
differen@@ 527
etr@@ 527
out. 526
ust@@ 526
cancer@@ 526
cat 526
totul 526
înch@@ 526
ir 525
ure 525
hol@@ 525
Apoi 525
1 524
poin@@ 524
exact 524
ros@@ 523
ien@@ 523
fă@@ 523
Există 523
information 522
stud@@ 522
public@@ 522
fel, 522
day, 521
you've 521
sea@@ 520
ago, 520
iul 520
vorba 520
pune 520
question 519
asă 519
global 518
teach@@ 518
ător 518
felul 518
viol@@ 517
Com@@ 517
iesc 517
nes@@ 516
ine. 516
iment@@ 516
locul 516
complex@@ 515
guvern@@ 515
like, 514
scienti@@ 514
there, 514
och@@ 514
semn@@ 514
read 513
ezi 513
zi, 513
ire 512
move 512
having 512
sco@@ 512
lor. 512
puţin 512
Mo@@ 511
molecul@@ 511
patru 511
date 510
bod@@ 510
ly. 510
cep@@ 510
desch@@ 510
Ex@@ 509
os, 509
itive 509
faci 509
She 508
-ul 508
children 507
chest@@ 507
mi 507
luat 507
uri. 507
căut@@ 506
ation@@ 505
All 505
self 505
Re@@ 505
bărb@@ 505
Pe 505
ere. 504
exper@@ 504
vine 504
doi 504
15 503
let@@ 503
tex@@ 503
unele 503
model 502
tain@@ 502
ine, 502
dist@@ 502
Î@@ 502
diferite 502
whether 501
everything 500
intern@@ 500
10@@ 500
ack 500
tan@@ 500
tran@@ 500
dific@@ 500
tiv 500
eaz@@ 500
dom@@ 499
moder@@ 498
men 498
ini 498
timp@@ 498
Iată 498
ts, 497
thinking 497
building 497
fiz@@ 497
și, 497
ts. 496
second 496
uş@@ 496
saw 495
incredi@@ 495
writ@@ 493
des 493
corp@@ 493
vorbesc 493
disea@@ 492
comp@@ 491
aici, 491
seen 490
resp@@ 490
sat@@ 489
Eu 489
mea@@ 488
ber 488
i-am 488
idee 488
thin@@ 487
wing 487
mur@@ 487
dul 487
învăț@@ 487
faptul 487
ific@@ 486
open@@ 486
coming 486
multă 486
play 485
cent@@ 485
bre@@ 485
sch@@ 485
tru@@ 484
kids 484
bună 484
celul@@ 484
ned 483
Poate 483
age, 482
vân@@ 482
simplu 482
eră 482
gan@@ 481
vel@@ 481
Din 481
aveam 481
precum 481
tly 480
ten 480
d-@@ 480
ically 480
perio@@ 480
aut@@ 480
connec@@ 479
wit@@ 479
both 479
exp@@ 479
aş 479
ată, 478
singur@@ 478
ască 478
Bo@@ 477
Pr@@ 477
provo@@ 477
pec@@ 476
punc@@ 476
turn 476
under@@ 476
wal@@ 476
arte 476
life. 475
ut, 475
up, 474
dou@@ 474
sed 474
pier@@ 474
aţia 474
copii 474
hy@@ 473
away 473
evi@@ 473
descoper@@ 473
își 472
sănăt@@ 472
Go@@ 471
top 471
living 471
They're 470
revolu@@ 470
ack@@ 470
rul@@ 470
ament@@ 470
toți 470
hum@@ 469
ick 469
8 469
enough 469
ade@@ 469
log@@ 469
copil@@ 469
my@@ 468
brea@@ 468
Intern@@ 468
audi@@ 468
let's 468
cine 468
copiii 468
Af@@ 467
Why 467
vide@@ 467
Fi@@ 467
spus, 467
ness 466
amb@@ 466
simple 466
son 466
le, 466
scur@@ 466
putut 466
aţii 466
îşi 466
exemplu, 466
ong 464
feren@@ 464
ofer@@ 464
drept@@ 464
sive 463
learn 463
gam@@ 463
X@@ 463
mut@@ 463
vac@@ 463
ibil@@ 463
acestor 463
imin@@ 462
thing, 462
you@@ 462
ones 462
mij@@ 462
dau 462
keep 461
United 461
ale@@ 461
munc@@ 461
left 460
single 460
erg@@ 460
ref@@ 459
teri@@ 459
ability 459
ty 459
tre 459
40 458
today 458
interesting 458
sense 458
liber@@ 458
săptămân@@ 458
Vreau 458
ară. 458
afac@@ 458
ds. 457
looks 457
00@@ 457
ales 457
războ@@ 457
gir@@ 456
ner 456
o-@@ 456
looked 455
asked 455
Prim@@ 455
tură 455
povest@@ 455
half 454
video 454
hor@@ 454
ferici@@ 454
modul 454
ves. 453
fact 453
energy 452
itate, 452
înțel@@ 452
pag@@ 451
trim@@ 451
iau 451
is: 450
protec@@ 450
lic@@ 450
Le@@ 449
ost 449
ty@@ 449
vit@@ 449
ite, 449
Su@@ 449
ideea 449
wan@@ 448
goes 448
atic 448
coll@@ 448
indi@@ 448
privi@@ 448
juc@@ 448
ește 448
within 447
'll 447
eng@@ 447
dest@@ 447
led 447
liter@@ 447
succes@@ 447
âr@@ 447
să-@@ 447
rest 446
ai@@ 446
El 446
implic@@ 446
înde@@ 446
funcţion@@ 446
fol@@ 445
computer 445
fundament@@ 445
— 444
auto@@ 444
ox@@ 443
bring 443
sistem 443
olul 443
cuno@@ 443
ets 442
spea@@ 442
ore@@ 442
mean, 442
Au@@ 442
cad@@ 442
energ@@ 441
while 441
produce 441
eff@@ 441
Fran@@ 441
aște@@ 441
mii 441
afl@@ 440
people. 439
Do@@ 439
att@@ 439
mâ@@ 439
tot@@ 438
aten@@ 438
alb@@ 438
almost 437
inclu@@ 437
deja 437
americ@@ 436
acestei 436
Ști@@ 436
clădi@@ 436
issu@@ 435
young 435
p. 435
9 435
presi@@ 435
ăl@@ 435
n't 434
up. 434
imb@@ 434
ascul@@ 434
pici@@ 434
ciu@@ 434
human@@ 433
cha@@ 433
fab@@ 433
formă 433
fii 433
țile 433
noastr@@ 433
w. 432
regi@@ 432
practic@@ 432
care, 432
– 432
ești 432
supra@@ 432
ole 431
du-@@ 431
ways 430
happened 430
bine. 430
m-a 430
începe 430
-mi 430
pozi@@ 430
ment, 429
resul@@ 429
under 429
ram@@ 429
oamenilor 429
do. 428
so, 428
Des@@ 428
ţe 428
niciodată 428
wo@@ 427
Ac@@ 427
example, 427
book 427
school 427
tem@@ 427
nuc@@ 427
DN@@ 427
deci 427
s-o 427
At@@ 426
p, 426
ond 426
crit@@ 426
ship@@ 426
ampl@@ 426
neces@@ 426
numit 426
jurul 426
times 425
control 425
religi@@ 425
sil@@ 425
ced 425
Mai 425
ții. 425
Şti@@ 425
miș@@ 425
ține 425
perspec@@ 424
side 424
mers 424
mean@@ 424
caz@@ 424
Era 424
eşti 424
corec@@ 424
s: 423
perm@@ 423
mul 423
funcțion@@ 423
feme@@ 423
bet@@ 422
ter, 422
completely 421
ot 421
commun@@ 421
ship 421
special 421
food 421
mes@@ 421
fiind 421
ru@@ 420
ant. 420
el. 420
actu@@ 420
centur@@ 420
el, 420
merg@@ 420
imag@@ 419
ough@@ 419
cond@@ 419
dra@@ 419
though 419
duce@@ 418
reason 418
Europ@@ 418
complic@@ 418
plic@@ 418
tri 418
înțele@@ 418
acestui 418
pain@@ 417
tes 417
ls 417
ita 417
spus: 417
od. 416
Car@@ 416
CA: 416
inside 416
tis@@ 416
mun@@ 416
Aici 416
târzi@@ 416
air@@ 415
far 414
room 414
mi-am 414
mici 414
înce@@ 414
ff@@ 413
compas@@ 413
limit@@ 413
prod@@ 413
ora 412
until 412
money 412
spac@@ 412
high 412
gândi@@ 412
Ca 412
already 411
dolari 411
nimic 411
all. 410
ment. 410
institu@@ 410
spați@@ 410
ton@@ 409
ven 409
adar, 409
viața 409
ments 408
job@@ 408
inform@@ 408
lik@@ 408
199@@ 408
organ@@ 408
atea 408
lim@@ 407
trad@@ 407
descri@@ 407
După 407
ter. 406
heard 406
iile 406
anii 406
anything 405
work. 405
ward 405
y's 405
celor 405
sour@@ 404
om, 404
someone 404
ia, 404
vin 404
deven@@ 404
Ha@@ 403
six 403
instrum@@ 403
publ@@ 403
aceea@@ 403
case 402
ari 402
lung@@ 402
rup@@ 402
puteți 402
built 401
capac@@ 401
ut. 401
noi, 401
acum, 401
years. 400
billion 400
clos@@ 400
ize 400
couple 400
sent@@ 400
mulţi 400
nouă 400
eşte 400
bri@@ 399
space 399
win@@ 399
't 399
ered 399
ară, 399
văd 399
diferen@@ 399
once 398
kno@@ 398
ys 398
vers@@ 398
"O@@ 398
zi. 398
sistemul 398
rezultat@@ 398
ât 398
oamen@@ 398
nu-i 398
often 397
reac@@ 397
Ste@@ 397
clin@@ 397
noi. 397
comport@@ 397
am, 396
cultur@@ 396
ben@@ 396
ocu@@ 396
pă 396
ech@@ 395
adv@@ 395
open 395
age. 395
secre@@ 395
Col@@ 395
omen@@ 395
ţile 395
”. 395
t-@@ 394
pictu@@ 394
order 394
merge 394
iți 394
maş@@ 394
acolo. 394
ily 393
wom@@ 392
health 392
ys, 392
cere@@ 392
mal@@ 392
problemă 392
aceea 392
vă@@ 392
extr@@ 391
became 391
gets 391
bio@@ 391
media 391
Ne 391
home 390
pic 390
e." 390
gânde@@ 390
să-mi 390
sus 389
must 389
basically 389
oraș@@ 389
domen@@ 389
lec@@ 388
hear@@ 388
particul@@ 388
flu@@ 388
erii 388
arăt@@ 388
gând@@ 388
bad 387
cri@@ 387
ame 387
gră@@ 387
exemplu 387
apă 387
întâln@@ 387
ăto@@ 387
crei@@ 387
eas@@ 386
democr@@ 386
non-@@ 386
things. 386
science 386
taking 385
much. 385
natural 385
itor 385
s-ar 385
intro@@ 384
animal@@ 384
Er@@ 384
again, 384
atul 384
efici@@ 384
effec@@ 383
spir@@ 383
siguran@@ 383
complet 383
începu@@ 383
şi, 383
analiz@@ 383
același 382
găsit 382
think, 381
50@@ 381
Ge@@ 381
cinci 381
învăţ@@ 381
creat 381
depen@@ 380
e's 380
gest@@ 380
mare, 380
zile 380
toţi 380
pap@@ 379
na 379
exactly 379
nothing 379
cli@@ 379
entul 379
Acest 379
sc 379
astă@@ 379
angaj@@ 379
compar@@ 378
ality 378
conflic@@ 378
nă@@ 378
and, 377
construc@@ 377
12 377
dent@@ 377
den 377
miliarde 377
probleme 377
știin@@ 377
cept 376
y-@@ 376
down@@ 376
America 376
behavi@@ 376
Chiar 376
trecu@@ 376
well, 375
You@@ 375
anal@@ 375
as, 375
che@@ 375
i-@@ 375
Putem 375
urilor 375
60 374
combin@@ 374
creativ@@ 374
Mic@@ 374
separ@@ 374
Gre@@ 374
folosi 374
împreună 374
long@@ 373
capit@@ 373
gin@@ 373
A, 373
fici@@ 373
D 373
nific@@ 373
see, 373
demonstr@@ 373
acor@@ 373
niște 373
unor 373
turns 372
cancer 372
plast@@ 372
entu@@ 372
enti@@ 371
happens 371
bit@@ 371
' 371
"I 371
crea 371
greu 371
diag@@ 370
perc@@ 370
industr@@ 370
une@@ 370
invent@@ 369
dollars 369
your@@ 369
sl@@ 369
miş@@ 369
ajunge 368
groz@@ 368
bot@@ 367
kinds 367
princi@@ 367
knew 367
play@@ 367
", 367
Îmi 367
intelig@@ 367
port 366
becom@@ 366
ger@@ 366
contex@@ 366
innov@@ 366
labor@@ 366
bune 366
ecte 366
ously 365
possible 365
progres@@ 365
Are 365
happ@@ 365
acă 365
right? 364
Ceea 364
Mă 364
do, 363
vol@@ 363
SU@@ 363
anc@@ 363
Or@@ 363
drag@@ 363
sunte@@ 363
mulțum@@ 363
share 362
multi@@ 362
mine, 362
lumin@@ 362
gar@@ 362
India 362
duc 362
impro@@ 361
couldn't 361
od, 361
isn't 361
Aș@@ 361
piece 360
recor@@ 360
de-@@ 360
icul@@ 360
anum@@ 360
tr-o 360
turile 360
impl@@ 359
rather 359
bab@@ 359
le. 359
iu 359
ții, 359
acces@@ 358
turned 357
ident@@ 357
hand@@ 357
detec@@ 357
enor@@ 357
China 357
pur 357
locuri 357
lume. 357
spaţi@@ 357
daca 357
since 356
ath 356
chem@@ 356
fig@@ 356
Let's 356
cell@@ 356
remember 356
tate 356
dar@@ 356
amen@@ 356
încerc@@ 356
pove@@ 356
countr@@ 355
c. 355
kil@@ 355
countries 355
ton 355
sing@@ 355
fascin@@ 355
distribu@@ 355
itor@@ 355
aj 355
viaţa 355
oare. 355
course 354
stop@@ 354
oul@@ 354
hope 354
allow@@ 354
Har@@ 354
En@@ 354
ute 354
nivel 354
frun@@ 354
ank 353
hear 353
wasn't 353
ement@@ 353
predic@@ 353
Mon@@ 353
reci@@ 353
”@@ 353
întreg@@ 353
mean 352
Lo@@ 352
excit@@ 352
new@@ 352
ching 352
ters 352
scr@@ 352
cauz@@ 352
ațion@@ 352
ceva. 352
ută 352
ște@@ 352
gave 351
frien@@ 351
Per@@ 351
Cre@@ 351
ament 351
știu 351
puteţi 351
cand 351
ant, 350
cour@@ 350
able. 350
future 350
country 350
experiment@@ 350
dem 350
creier@@ 350
conect@@ 350
majoritatea 350
vedeți 350
înţele@@ 350
tă. 350
projec@@ 349
ement 349
against 349
bil 349
American 348
decided 348
om. 348
tool@@ 348
r. 348
ia. 348
întâmplat 348
descoperit 348
cauza 348
G: 347
Ph@@ 347
them@@ 347
doc@@ 347
adul@@ 347
pow@@ 347
ind@@ 347
împărtă@@ 347
dintr-o 347
lupt@@ 347
ves, 346
h. 346
phys@@ 346
refl@@ 346
ada 346
interi@@ 346
aşte@@ 346
doua 346
as. 345
vic@@ 345
move@@ 344
work, 344
ze@@ 344
princip@@ 344
lor, 344
Pămân@@ 344
trecut 344
enț@@ 344
18@@ 343
Univers@@ 343
ger 343
mei 343
persoană 343
scă@@ 343
seri@@ 342
S 342
there@@ 342
tern@@ 342
respec@@ 342
permite 342
arăta 342
ital 341
land@@ 341
now. 341
vest@@ 341
learned 341
chim@@ 341
oci@@ 341
nostr@@ 341
ch, 340
head 340
ists 340
compani@@ 340
transpor@@ 340
tr-un 340
matter 339
aro@@ 339
întreaga 339
ble. 338
sy@@ 338
ly@@ 338
demo@@ 338
vech@@ 338
tru 338
spe@@ 337
sto@@ 337
lots 337
experience 337
aren@@ 337
000 337
cumpăr@@ 337
văz@@ 337
vrut 337
trebuit 337
matemat@@ 337
grup@@ 337
opportun@@ 336
aver@@ 336
mental 336
origin@@ 336
tele@@ 336
nic@@ 336
face@@ 336
lângă 336
appro@@ 335
engine@@ 335
ras@@ 335
pa 335
nim@@ 335
mică 335
cem 335
front 334
state 334
constr@@ 334
created 334
resur@@ 334
25 334
măsură 334
vezi 334
telef@@ 334
pit@@ 333
ering 333
chil@@ 333
stuff 333
scul@@ 333
prob@@ 333
bloc@@ 333
lua 333
inov@@ 333
ju@@ 332
posed 332
norm@@ 332
doctor@@ 332
sm@@ 332
termin@@ 332
edi@@ 332
drum@@ 332
uri@@ 332
add@@ 331
run 331
it? 331
team 331
psi@@ 331
mulţum@@ 331
sufici@@ 331
schimba 331
amentul 331
auzit 331
picture 330
dy 330
figure 330
great@@ 330
aleg@@ 330
cul 330
here's 329
family 329
invol@@ 329
relation@@ 329
Da, 329
?” 329
surprin@@ 329
asta? 329
ft 328
fund@@ 328
We@@ 328
cy@@ 328
word 328
Bra@@ 328
itiv@@ 328
grow@@ 328
Brit@@ 328
Pre@@ 328
poveste 328
îți 328
gândit 328
vei 328
dreap@@ 328
ştiin@@ 328
împotriva 328
answer 327
flo@@ 327
avi@@ 327
lives 327
sts 327
childre@@ 327
acelaşi 327
Aş@@ 327
fața 327
punct 327
communic@@ 326
befo@@ 326
ajul 326
somebody 325
cro@@ 325
lions 325
extin@@ 325
design@@ 325
ling 325
manag@@ 324
stop 324
self-@@ 324
else 324
gândim 324
pere@@ 324
folosit 324
aibă 324
name 323
conduc@@ 323
beautiful 323
concentr@@ 323
V 322
program 322
ately 322
known 322
ins@@ 322
dea 322
Această 322
business 321
you'll 321
vered 321
her@@ 321
ac 321
entă 321
stă 321
oare, 321
Is@@ 320
group 320
roc@@ 320
use, 320
vrem 320
scris 320
particular 319
We've 319
st. 319
back@@ 319
Ro@@ 319
lab@@ 319
azi 319
țele 319
exampl@@ 318
art 318
shor@@ 318
rol@@ 318
develop@@ 318
hal@@ 318
identi@@ 318
divers@@ 318
study 318
sust@@ 318
usi@@ 318
eviden@@ 318
explo@@ 318
ste 318
înapoi 318
anume 318
zut 318
based 317
interest@@ 317
takes 317
aff@@ 317
exista 317
cev@@ 317
folosesc 317
industri@@ 316
build@@ 316
well. 316
economic 316
car 316
valu@@ 316
arly 316
ched 316
Man@@ 316
echip@@ 316
jos 316
jumătate 316
mea, 316
reuș@@ 316
Internet 315
king, 315
Oka@@ 315
taken 315
At 315
York 315
depar@@ 315
aplic@@ 315
subi@@ 315
ne-a 315
problema 315
ă: 315
works 314
ich 314
answ@@ 314
wed 314
virtu@@ 314
survi@@ 314
compet@@ 314
ka@@ 314
contin@@ 314
distan@@ 314
ţii. 314
ători 314
întoar@@ 314
neg@@ 313
line 313
early 313
wn@@ 313
surpris@@ 313
shows 313
Di@@ 313
squ@@ 313
months 313
obvi@@ 313
docum@@ 313
Br@@ 313
Mul@@ 313
față 313
ită. 313
creierul 313
punem 313
arăt 313
iţi 313
amazing 312
histor@@ 312
pus@@ 312
level@@ 312
thousands 312
righ@@ 312
entire 312
em, 312
thro@@ 312
”, 312
Ș@@ 312
ful@@ 311
secur@@ 311
agen@@ 311
pin@@ 311
da, 311
ks, 311
cuvin@@ 311
aţion@@ 311
energie 311
nou, 311
posibil 311
urmă 311
bine@@ 311
intel@@ 310
local 310
inven@@ 310
galax@@ 310
today, 310
says 310
petr@@ 310
says, 310
artic@@ 310
determin@@ 310
adap@@ 310
/@@ 310
meto@@ 310
0. 309
wea@@ 309
ideas 309
train@@ 309
government 309
then, 309
inspir@@ 309
ugh@@ 309
days 309
auz@@ 309
ătorii 309
lif@@ 308
uses 308
Q@@ 308
potriv@@ 308
reprezintă 308
acum. 308
momentul 308
city 307
process 307
personal 307
scre@@ 307
ces. 307
ado@@ 307
fon@@ 307
adar 307
proiect 307
vreo 307
ultimii 307
unile 307
Then 306
even@@ 306
Ear@@ 306
sear@@ 306
cale 306
uimit@@ 306
M-am 306
devine 306
tehnologie 306
âng@@ 306
supravie@@ 306
aminte@@ 306
ştiu 306
il, 305
11 305
y: 305
fen@@ 305
life, 305
sat 305
onom@@ 305
pie@@ 305
etul 305
și@@ 305
dol@@ 304
along 304
tech@@ 304
sometimes 304
least 304
test 304
OK, 304
certain 304
dator@@ 304
petre@@ 304
veți 304
fast@@ 303
during 303
project 303
govern@@ 303
sym@@ 303
fully 303
futu@@ 303
happen 303
mess@@ 303
Afric@@ 303
everybody 303
Some 303
ted. 303
am. 303
ean 303
thes@@ 303
grou@@ 303
mine. 303
absol@@ 303
ități 303
țiile 303
ectul 303
povestea 303
arele 303
puterea 303
secon@@ 302
lear@@ 302
large 302
ders 302
powerful 302
les@@ 302
ama 302
ations, 302
und. 302
apro@@ 302
următo@@ 302
folosim 302
year, 301
web@@ 301
ust 301
găsi 301
reprezent@@ 301
ith 300
ices 300
Som@@ 300
atten@@ 300
"The 300
int@@ 300
inc@@ 300
imedi@@ 300
bani 300
dăm 300
drep@@ 300
apte 300
far@@ 299
self, 299
recogn@@ 299
und, 299
worked 299
ri 299
asa 299
plec@@ 299
dă@@ 299
Aceste 299
oraş@@ 299
carea 299
bers 298
minute 298
key 298
abl@@ 298
A. 298
pet@@ 298
zic@@ 298
mediul 298
Pute@@ 298
tehnologia 298
luni 298
s." 297
accept@@ 297
râ@@ 297
doilea 297
iam 297
temper@@ 296
contribu@@ 296
fantast@@ 296
ome 296
mobil@@ 296
200 296
oce@@ 296
impact 296
quick@@ 296
research 296
um, 296
amin@@ 296
mult, 296
Ar 296
extrem 296
rezul@@ 296
cei@@ 295
Can@@ 295
smar@@ 295
gri@@ 295
obic@@ 295
totu@@ 295
ally. 294
Do 294
sever@@ 294
stories 294
third 294
concl@@ 294
tum@@ 294
nevo@@ 294
tere 294
măsur@@ 294
oase 294
just@@ 293
trac@@ 293
mist@@ 293
problems 293
given 293
dit 293
bile 292
Fo@@ 292
land 292
oameni. 292
Statele 292
ǎ 292
emis@@ 291
ian 291
ys. 291
chan@@ 291
gol@@ 291
guy 291
maș@@ 291
ţine 291
faţă 291
viaț@@ 291
day. 290
huge 290
Yea@@ 290
deca@@ 290
sul@@ 290
child 290
pun 290
ulu@@ 290
gân@@ 290
job 289
conver@@ 289
saying 289
lar@@ 289
film 289
şte@@ 289
cuvân@@ 289
bul@@ 288
full 288
500 288
tional 288
Yor@@ 288
resour@@ 288
fail@@ 288
optim@@ 288
acter@@ 288
Ace@@ 288
viață 288
Dumne@@ 288
Oamenii 288
ție. 288
places 287
Pa@@ 287
ations. 287
species 287
saf@@ 287
health@@ 287
simt 287
grup 287
cazul 287
adă@@ 287
vedere 287
nişte 287
ight, 286
ain 286
favor@@ 286
iar@@ 286
ba@@ 286
final 286
ectiv@@ 286
trag@@ 286
i: 286
mea. 286
este, 286
abă 286
voastr@@ 286
resc 286
fu@@ 285
sequ@@ 285
very, 285
im. 285
tu 285
dezvol@@ 285
timp, 285
fotogra@@ 285
găsi@@ 285
aveau 285
201@@ 284
self. 284
belie@@ 284
za 284
zer@@ 284
though@@ 284
ţele 284
persoane 284
a-i 284
electric@@ 283
compl@@ 283
acy 283
Inst@@ 283
moving 283
Li@@ 283
lit@@ 283
M: 283
plat@@ 283
digit@@ 283
întâ@@ 283
femei 283
singur 283
copil 283
Sh@@ 282
Well 282
ago 282
milit@@ 282
today. 282
simply 282
ali 282
lungul 282
ativ 282
lumii 282
ătoare 282
For@@ 281
icien@@ 281
sign@@ 281
Here's 281
ys@@ 281
knowled@@ 281
cept@@ 281
acci@@ 281
uci@@ 281
zec@@ 281
sute 281
dispoz@@ 281
schimbat 281
ange 280
things, 280
corpor@@ 280
thing@@ 280
financi@@ 280
everyone 280
adic@@ 280
busin@@ 280
consi@@ 280
feel@@ 280
realized 280
stabil@@ 280
refer@@ 280
câte 280
Ho@@ 279
Google 279
close 279
behind 279
tie 279
rezolv@@ 279
challeng@@ 278
students 278
agre@@ 278
stri@@ 278
cells 278
dimensi@@ 278
stuff@@ 278
stati@@ 278
acolo, 278
fiu 278
pră@@ 278
oameni, 278
îmbunătă@@ 278
heart 277
example 277
infec@@ 277
To 277
kill@@ 277
paren@@ 277
music 277
em. 277
tă, 277
tului 277
kid@@ 276
U.S. 276
foc@@ 276
voc@@ 276
HI@@ 276
integr@@ 276
exempl@@ 276
vrei 276
pris@@ 275
You're 275
thought, 275
St@@ 275
indic@@ 275
fiindcă 275
tuturor 275
icii 275
!" 274
cy 274
instead 274
Mi@@ 274
ante 274
atorul 274
încep@@ 274
began 273
gen 273
increas@@ 273
perfect 273
tou@@ 273
mode@@ 273
port@@ 273
decl@@ 273
forma 273
studen@@ 273
departe 273
îngrij@@ 273
lucruri. 273
nimeni 273
with@@ 272
spent 272
we'll 272
oun@@ 272
maj@@ 272
Just 272
Bi@@ 272
sit 272
Nu@@ 272
esc@@ 272
apropi@@ 272
repe@@ 271
mind 271
fore@@ 271
shar@@ 271
incl@@ 271
cis@@ 271
ver, 271
18 271
leave 271
pros@@ 271
mir@@ 271
obser@@ 271
loo@@ 270
ks. 270
Jo@@ 270
bloo@@ 270
at? 270
ocean@@ 270
hand 270
ester@@ 270
ating@@ 270
ni 270
ț 270
părin@@ 270
ză 270
material 269
animal 269
hous@@ 269
interested 269
dig@@ 269
percep@@ 269
disco@@ 269
stimul@@ 269
desen@@ 269
Al 268
words 268
ject@@ 268
peopl@@ 268
unch 268
explor@@ 268
ities, 268
Ad@@ 268
iv@@ 268
dure@@ 268
ingin@@ 268
lucru. 268
Dar, 268
Sau 268
dom 267
illi@@ 267
spor@@ 267
Jap@@ 267
atom@@ 267
Me@@ 267
later, 267
He@@ 267
discur@@ 267
iată 267
meu, 267
mereu 267
merg 267
inim@@ 267
Sec@@ 266
follow@@ 266
ther, 266
community 266
bom@@ 266
ura 266
rele 266
ală@@ 266
puţ@@ 266
încep 266
știm 266
află 266
veţi 266
mak@@ 265
complex 265
felt 265
view 265
alg@@ 265
seeing 265
asp@@ 265
mare. 265
găs@@ 265
munca 265
dră@@ 265
ster@@ 264
unds 264
stan@@ 264
Pri@@ 264
moment, 264
cea@@ 264
ete 264
fim 264
idei 264
echi@@ 264
-ai 264
îţi 264
decis 264
gest 263
Ger@@ 263
’@@ 263
sound 263
ministr@@ 263
agricul@@ 263
prive@@ 263
ităţi 263
iune 263
folosind 263
carbon 262
mel@@ 262
Acestea 262
ă-@@ 262
ţiile 262
Suntem 262
g, 261
curren@@ 261
poli@@ 261
il. 261
energi@@ 261
tradi@@ 261
ității 261
sigur 261
cost 260
ms 260
inf@@ 260
atmos@@ 260
organis@@ 260
ian@@ 260
ens 260
fri@@ 260
other. 260
ax@@ 260
chin@@ 260
onul 260
ordin@@ 259
performan@@ 259
trop@@ 259
Here 259
spend 259
happening 259
Or 259
ki@@ 259
greș@@ 259
ţii, 259
sfârș@@ 259
treb@@ 259
l-a 259
iub@@ 259
feric@@ 259
expres@@ 258
cannot 258
tions, 258
Don@@ 258
Is 258
camera 258
magaz@@ 258
ori, 258
esen@@ 258
înainte@@ 258
Voi 258
timp. 258
primit 258
aduce 258
middle 257
important. 257
phone 257
hos@@ 257
seven 257
sper@@ 257
im, 257
aminti@@ 257
adân@@ 257
luăm 257
pămân@@ 257
î@@ 257
walk 256
iti 256
needed 256
repres@@ 256
history 256
again. 256
ply 256
wards 256
they@@ 256
potenti@@ 256
respons@@ 256
nicio 256
numărul 256
țel@@ 256
Mulţum@@ 256
Noi 256
vill@@ 255
augh@@ 255
amount 255
app@@ 255
Sun@@ 255
drug@@ 255
versi@@ 255
convin@@ 255
direct 255
ta, 255
antă 255
pregă@@ 255
proiec@@ 255
scien@@ 254
parts 254
ared 254
ted, 254
past@@ 254
typ@@ 254
compon@@ 254
ama@@ 254
adi@@ 254
simul@@ 254
ati 254
vorbe@@ 254
trebuia 254
oarea 254
ță. 254
amente 254
set@@ 253
ition@@ 253
easy 253
ov@@ 253
softw@@ 253
sud@@ 253
autom@@ 253
He's 253
ince@@ 253
iu@@ 253
ează. 253
șco@@ 253
aproximativ 253
learning 252
able, 252
ape 252
100@@ 252
los@@ 252
to, 252
underst@@ 252
year-@@ 252
this@@ 252
shi@@ 252
s-@@ 252
nav@@ 252
ceal@@ 252
mașin@@ 252
teh@@ 252
ătorul 252
iun@@ 252
devin 252
Ken@@ 251
right, 251
frag@@ 251
normal 251
dem@@ 251
nature 251
civiliz@@ 251
arul 251
cunos@@ 251
noastre. 251
Toate 251
crescut 251
extrem@@ 250
requ@@ 250
ently 250
Earth 250
ny 250
langu@@ 250
myself 250
lap@@ 250
pal@@ 250
house 250
apa 250
nivelul 250
realizat 250
ziua 250
hon@@ 249
concer@@ 249
've 249
political 249
198@@ 249
dove@@ 249
atâ@@ 249
dere 249
telling 248
brought 248
argum@@ 248
mone@@ 248
changed 248
outside 248
non@@ 248
ago. 248
., 248
astea 248
însă 248
dolar@@ 248
singură 248
ură 248
tive. 247
guys 247
important@@ 247
mother 247
sf@@ 247
ist, 247
beg@@ 247
uit 247
violen@@ 247
ving@@ 247
neuron@@ 247
tine 247
genul 247
construit 247
Chris 246
terms 246
tions. 246
provi@@ 246
ebr@@ 246
istor@@ 246
scu@@ 246
sar@@ 246
condi@@ 246
Şi, 246
înțeleg@@ 246
abilitatea 246
viaţ@@ 246
pay 245
bran@@ 245
desp@@ 245
difficult 245
tab@@ 245
countri@@ 245
5, 245
ities. 245
ance, 245
Mc@@ 245
Luc@@ 245
hid@@ 245
fric@@ 245
vorbit 245
esc, 245
reze 245
fotografi@@ 245
vorbim 245
nă 245
ăm. 245
true 244
again 244
right. 244
fortun@@ 244
ject 244
Our 244
1, 244
urb@@ 244
arr@@ 244
robot 244
Lon@@ 244
easc@@ 244
recuno@@ 244
lume, 244
dintr-un 244
credem 244
rămân@@ 244
forma@@ 243
altern@@ 243
ili@@ 243
jec@@ 243
size 243
jum@@ 243
curs 243
resear@@ 243
tun@@ 243
ran 243
adun@@ 243
erul 243
Câ@@ 243
Vede@@ 243
wrong 242
eria 242
vers 242
emen@@ 242
will@@ 242
Vi@@ 242
dum@@ 242
Ob@@ 242
acoper@@ 242
numită 242
asigur@@ 242
ăsta 242
Africa, 241
woman 241
grow 241
perfec@@ 241
ce? 241
preci@@ 241
mama 241
antre@@ 241
viaţă 241
ări. 241
odat@@ 241
Se@@ 240
lost 240
small@@ 240
say@@ 240
bacter@@ 240
Davi@@ 240
tried 240
face. 240
was@@ 240
hu@@ 240
Ber@@ 240
uităm 240
ţă, 240
urmă, 240
ajuta 240
actually, 239
was, 239
On@@ 239
grand@@ 239
experiment 239
gives 239
baza 239
şe@@ 239
câşti@@ 239
ceilal@@ 239
spatele 239
manu@@ 238
yet 238
hours 238
Be@@ 238
veh@@ 238
del@@ 238
speran@@ 238
at-o 238
acești 238
comunic@@ 238
ță, 238
Unul 238
elor. 238
grij@@ 238
servici@@ 238
tare 238
won't 237
Bro@@ 237
People 237
friends 237
som@@ 237
ste@@ 237
exer@@ 237
fron@@ 237
intelli@@ 237
Califor@@ 237
Wi@@ 237
Africa. 237
estim@@ 237
gândesc 237
iunea 237
asemenea, 237
sufer@@ 237
încercat 237
hot@@ 236
devel@@ 236
ign 236
ces, 236
ited 236
0 236
game 236
hold 236
digital 236
fap@@ 236
stâng@@ 236
erele 236
ature 235
call@@ 235
buy 235
aste 235
level 235
oy@@ 235
ay 235
sle@@ 235
area, 235
sută 235
colo 235
pierd@@ 235
interesant 235
plan 234
wonderful 234
online 234
nal@@ 234
ber, 234
dependen@@ 234
ous. 234
rom@@ 234
presu@@ 234
înregistr@@ 234
femeile 234
vizu@@ 234
rul 234
conven@@ 233
convers@@ 233
genet@@ 233
tle 233
whatever 233
ignor@@ 233
animals 233
ple@@ 233
vor@@ 233
language 233
na@@ 233
influen@@ 233
aza 233
urma 233
reuş@@ 233
vorbi 233
pacien@@ 233
odată. 233
produce@@ 232
conserv@@ 232
essenti@@ 232
peci@@ 232
realize 232
x. 232
site 232
feeling 232
bog@@ 232
acas@@ 232
învă@@ 232
tivă 232
urmăr@@ 232
ţel@@ 232
atoare 232
tocmai 232
ştim 232
they've 231
needs 231
Not 231
sitting 231
top@@ 231
together. 231
auth@@ 231
John 231
architec@@ 231
ine@@ 231
explic@@ 231
sca@@ 231
ţă. 231
ress 230
eight 230
year. 230
difference 230
ok 230
ad. 230
ru 230
ture, 230
dimension@@ 230
starting 230
Isl@@ 230
ID@@ 230
Face@@ 230
Însă 230
număr 230
întrebare 230
sli@@ 229
deal 229
developed 229
hundreds 229
verse 229
fal@@ 229
objec@@ 229
planet 229
No, 229
know. 229
ană 229
măcar 229
rezol@@ 229
"Well, 228
Engli@@ 228
Char@@ 228
medical 228
well@@ 228
um. 228
common 228
res, 228
met 228
extre@@ 228
Dar@@ 228
abilă 228
mecan@@ 228
aceşti 228
ției 228
sigur@@ 228
țiva 228
air 227
ever@@ 227
Ur@@ 227
tiz@@ 227
spect@@ 227
afec@@ 227
trebu@@ 227
senz@@ 227
Doar 227
physical 226
write 226
dy@@ 226
psych@@ 226
total 226
nice 226
epi@@ 226
access 226
camer@@ 226
imp@@ 226
electron@@ 226
scop@@ 226
făc@@ 226
teze 226
incredibil@@ 226
ațiile 226
categ@@ 225
four@@ 225
spo@@ 225
giving 225
sh 225
ess, 225
together, 225
mathemat@@ 225
Sa@@ 225
graph@@ 225
important, 225
ma, 225
acol@@ 225
aceast@@ 225
putere 225
dori 225
more. 224
der, 224
inde@@ 224
area. 224
company 224
excep@@ 224
sect@@ 224
father 224
mig@@ 224
bed 224
als, 224
happy 224
strateg@@ 224
pedi@@ 224
tro@@ 224
stat 224
schim@@ 224
meu. 224
obișnu@@ 224
zbo@@ 224
imea 224
trece 224
faţa 224
arhitec@@ 224
Ea 224
lucrat 224
vedeţi 224
wonder@@ 223
that? 223
major@@ 223
black 223
Imagin@@ 223
cell 223
bec@@ 223
particip@@ 223
wouldn't 223
prefer@@ 223
scan@@ 223
’s 223
rez 223
ua 223
ție, 223
să-și 223
uitat 223
free 222
Pe@@ 222
hun@@ 222
ocean 222
journe@@ 222
deose@@ 222
protej@@ 222
oferă 222
le-a 222
abile 222
mech@@ 221
of, 221
op 221
Can 221
simil@@ 221
market@@ 221
What's 221
wrote 221
past 221
ages 221
go. 221
80 221
numele 221
şi@@ 221
curaj@@ 221
tăm 221
bătr@@ 221
wrong@@ 220
consci@@ 220
conn@@ 220
longer 220
perhaps 220
problem. 220
questions 220
sibil@@ 220
education 220
dang@@ 220
ess. 220
finan@@ 220
degr@@ 220
forme 220
aflat 220
curile 220
nebun@@ 220
oil 219
itional 219
ert 219
World 219
ance@@ 219
selves 219
inspi@@ 219
who's 219
"S@@ 219
apo@@ 219
evol@@ 219
tain 219
ecu@@ 219
plin@@ 219
proces 219
anumite 219
legătură 219
noastre, 219
celule 219
diminea@@ 219
întotdeauna 219
muncă 219
South 218
sens@@ 218
cle@@ 218
growing 218
ol. 218
var@@ 218
ay@@ 218
ta. 218
creș@@ 218
obişnu@@ 218
petrecut 218
tân@@ 218
rând, 218
alitatea 218
atori 218
bază 218
ţie. 218
grap@@ 217
perf@@ 217
vulner@@ 217
dollar@@ 217
Ric@@ 217
s' 217
On 217
similar 217
recent 217
general 217
metr@@ 217
apoi, 217
numesc 217
ultima 217
apărut 217
sfârş@@ 217
ecolog@@ 216
cus 216
70 216
ingly 216
benef@@ 216
pret@@ 216
ch. 216
tox@@ 216
aci@@ 216
collec@@ 216
unde@@ 216
seems 216
tempor@@ 216
a." 216
lob@@ 216
U.@@ 216
Gu@@ 216
cun@@ 216
oria 216
atunc@@ 216
detal@@ 216
%@@ 216
începem 216
Nu, 216
ately, 215
allow 215
partici@@ 215
rate 215
ture. 215
colon@@ 215
photograph@@ 215
bey@@ 215
universe 215
companies 215
zz@@ 215
B: 215
oportun@@ 215
Care 215
decision@@ 214
hour@@ 214
population 214
pil@@ 214
C 214
rist@@ 214
marc@@ 214
oasă 214
vitez@@ 214
Mulțumesc. 214
oarele 214
loc. 214
2, 213
through@@ 213
avail@@ 213
bea@@ 213
domin@@ 213
ble, 213
infrastruc@@ 213
terri@@ 213
Rus@@ 213
ous, 213
ourselves 213
beginning 213
own@@ 213
clear@@ 213
seem 213
ra 213
insul@@ 213
antic@@ 213
benefici@@ 213
avan@@ 213
ș 213
într-adevăr 213
prezin@@ 213
itoare 213
understanding 212
rit@@ 212
neighbor@@ 212
photo@@ 212
"You 212
titu@@ 212
gas@@ 212
Cen@@ 212
furn@@ 212
Le 212
use@@ 212
salv@@ 212
ităţii 212
încearcă 212
şco@@ 212
ări, 212
running 211
changing 211
es? 211
stand 211
wis@@ 211
lef@@ 211
Ever@@ 211
appe@@ 211
ur, 211
adus 211
istoria 211
elor, 211
poată 211
tipuri 211
erile 211
main@@ 210
developing 210
x, 210
d: 210
peri@@ 210
t: 210
cheltu@@ 210
cunoscu@@ 210
problemele 210
porn@@ 210
ǎ@@ 210
membr@@ 210
OK. 209
system. 209
absolut@@ 209
image 209
incredibly 209
len@@ 209
world's 209
ink 209
ars 209
Let 209
tei 209
g. 209
she's 209
imit@@ 209
opr@@ 209
ţ 209
lans@@ 209
răspân@@ 209
themsel@@ 208
talked 208
sion, 208
ing? 208
volun@@ 208
yst@@ 208
bust@@ 208
ou 208
asem@@ 208
arii 208
discu@@ 208
cuv@@ 208
be, 207
gic 207
creating 207
No 207
ake 207
down, 207
parents 207
ents, 207
Asi@@ 207
war 207
fice 207
plas@@ 207
atura 207
repede 207
oară 207
importantă 207
simț@@ 207
engle@@ 207
shap@@ 206
field 206
suff@@ 206
propriet@@ 206
ecare 206
propria 206
eren@@ 205
T 204
gal@@ 202
piec@@ 201
publi@@ 201
atele 201
empl@@ 200
poten@@ 200
împreun@@ 200
legă@@ 200
ould 199
here@@ 198
kin@@ 198
pra@@ 198
comple@@ 197
hundre@@ 197
cresc@@ 197
run@@ 196
igur@@ 196
fiel@@ 195
Vo@@ 195
kes 194
world@@ 193
begin@@ 193
chall@@ 193
tem 193
hap@@ 192
ş 191
ces@@ 190
ell 190
ought 190
bly 189
civ@@ 189
dac@@ 189
ns 188
cer 187
N 187
carb@@ 186
incre@@ 186
reli@@ 186
!@@ 183
thous@@ 183
stu@@ 180
dea@@ 179
miliar@@ 179
experim@@ 178
Eur@@ 176
ey 176
Tre@@ 176
recun@@ 176
..@@ 175
xim@@ 175
ough 175
fam@@ 175
influ@@ 174
ause 173
ybe 173
month@@ 173
cogn@@ 173
Ve@@ 173
ăr 172
ătă@@ 172
ână 169
țin 167
know@@ 166
exam@@ 166
Joh@@ 166
ener@@ 165
ainte 165
oarece 165
Vre@@ 164
remem@@ 163
amaz@@ 162
won@@ 162
Goog@@ 162
stea 162
ories 161
ther. 161
urmă@@ 161
prac@@ 161
orig@@ 160
blem@@ 160
elec@@ 159
net 158
power@@ 157
seam@@ 156
that@@ 155
ară@@ 155
jour@@ 154
rom 154
ără 154
ã 154
vern@@ 153
puter@@ 153
gli@@ 153
adev@@ 153
ail@@ 152
pre 152
mol@@ 151
mpl@@ 150
năt@@ 150
tec@@ 149
întâl@@ 149
bus@@ 148
prezintă 148
see@@ 147
$@@ 147
Uni@@ 147
ja 147
ămân@@ 146
heal@@ 145
?@@ 145
potri@@ 145
beauti@@ 144
ready 144
buil@@ 144
ând, 144
whe@@ 143
ken 142
&@@ 142
pho@@ 142
Mulțum@@ 142
întreag@@ 142
B 141
indivi@@ 141
Pu@@ 140
ilea 140
Ave@@ 139
ouse 138
They@@ 138
eva 138
;@@ 137
fore 137
seem@@ 136
mos@@ 134
complet@@ 134
atel@@ 134
partic@@ 134
uti@@ 134
arg@@ 133
împăr@@ 133
istă 133
nivel@@ 131
număr@@ 131
arch@@ 129
imes 129
youn@@ 129
P 129
nolog@@ 128
spi@@ 127
Ă@@ 125
:@@ 124
j 124
într-@@ 124
decis@@ 123
ands 121
compute@@ 121
q@@ 120
]@@ 120
S. 119
cess 119
ibil 119
apăr@@ 117
OK@@ 116
Wor@@ 116
arh@@ 116
tr-@@ 116
iliz@@ 115
wr@@ 114
A: 114
toc@@ 114
gres@@ 114
gn@@ 114
ell, 113
east@@ 112
mere@@ 111
bli@@ 111
year@@ 110
cou@@ 110
aib@@ 110
Pen@@ 109
băr@@ 109
imeni 109
uce 107
M 106
infr@@ 106
proi@@ 106
thr@@ 105
ouldn't 104
R 104
thir@@ 104
difficul@@ 103
X 102
jumăt@@ 102
cet@@ 101
Ş@@ 101
istr@@ 100
demon@@ 100
pem 99
câte@@ 98
dd@@ 97
Ce@@ 97
ã@@ 97
proble@@ 97
who@@ 96
“@@ 96
Chr@@ 95
Dec@@ 94
outh 94
totdeauna 94
progr@@ 94
totdea@@ 94
vul@@ 90
spus@@ 89
sai@@ 88
K 88
worl@@ 87
Inter@@ 86
togra@@ 86
Ț@@ 86
tutur@@ 86
dn't 84
ead 84
seamnă 84
lion 83
etimes 82
psy@@ 81
Bec@@ 80
fant@@ 80
asemen@@ 80
self@@ 79
vr@@ 79
ioane 78
midd@@ 77
dimin@@ 77
L 76
nd 76
Trebu@@ 76
instr@@ 75
ainte@@ 75
amoun@@ 74
mec@@ 74
nex@@ 73
gh 73
é@@ 73
vorbi@@ 73
noast@@ 73
denti@@ 72
utur@@ 72
Tran@@ 70
indcă 70
It@@ 69
vel 69
revol@@ 69
sof@@ 68
igh 66
F 65
nov@@ 65
U 65
desc 65
indu@@ 64
G 62
eric@@ 61
petrec@@ 61
tribu@@ 60
engin@@ 59
haps 59
q 59
ose@@ 57
mal 56
again@@ 56
chel@@ 56
beh@@ 56
ȋ@@ 56
quest@@ 55
registr@@ 55
understand@@ 54
preun@@ 54
emat@@ 52
toar@@ 52
Afr@@ 51
Ţ@@ 50
upr@@ 48
strat@@ 48
comm@@ 48
til 47
ricul@@ 46
led@@ 45
adevăr 45
nee@@ 44
H 44
stim@@ 44
propr@@ 44
ângă 44
Oamen@@ 43
târ@@ 43
angu@@ 42
Y 41
í@@ 41
perfor@@ 41
hist@@ 40
+ 40
fas@@ 40
á@@ 38
does@@ 38
probab@@ 38
) 38
asupr@@ 37
î 37
diff@@ 36
essen@@ 36
ceil@@ 35
ecul@@ 35
= 34
ff 34
Q 33
/ 33
neigh@@ 32
beha@@ 31
acros@@ 31
Amer@@ 31
W 30
dimen@@ 30
Dup@@ 30
priet@@ 29
script@@ 28
exact@@ 27
uch 26
é 26
wro@@ 26
betwe@@ 25
itec@@ 25
J 25
viron@@ 25
_@@ 25
Sub@@ 25
toge@@ 24
extra@@ 24
ll 23
TE@@ 23
@@@ 23
Peo@@ 23
ç@@ 23
Z 21
import@@ 21
atever 21
#@@ 21
potriva 21
… 20
–@@ 20
$ 20
ere's 19
 @@ 19
ö@@ 19
themat@@ 18
flic@@ 18
răsp@@ 18
ptămân@@ 18
sfâr@@ 18
aproxim@@ 18
ó@@ 17
alk 17
—@@ 17
aic@@ 16
è@@ 16
Dum@@ 16
portun@@ 16
clă@@ 16
+@@ 15
fut@@ 14
țum@@ 13
arcă 13
♫@@ 13
ü@@ 12
Let@@ 12
sci@@ 11
*@@ 11
Aceast@@ 11
șnu@@ 11
ø@@ 10
ó 10
Ima@@ 10
şnu@@ 10
're 9
ld 9
[ 9
ţum@@ 9
°@@ 9
at's 8
I'@@ 8
astruc@@ 8
’ 8
* 8
bunătă@@ 8
â 8
ñ@@ 7
à@@ 7
á 7
titles 6
_ 6
‘@@ 6
stribu@@ 6
― 6
ć@@ 5
@@ 5
@@ 5
¨@@ 5
Á@@ 4
^ 4
ê@@ 4
º@@ 4
# 4
„ 4
`@@ 4
acela@@ 4
´@@ 4
ȃ@@ 4
í 3
à 3
«@@ 3
» 3
“ 3
ù 2
è 2
送@@ 2
你@@ 2
葱 2
˚ 2
^@@ 2
ë@@ 2
€@@ 2
ě@@ 2
É@@ 2
Ç@@ 2
ä@@ 2
` 2
)@@ 2
♪@@ 2
¨ 2
(@@ 2
™ 2
و@@ 2
« 2
»@@ 2
½ 2
：@@ 2
ā@@ 2
́@@ 1
ï@@ 1
=@@ 1
scho@@ 1
æ@@ 1
¢ 1
syst@@ 1
ø 1
ò@@ 1
  1
£@@ 1
ú 1
@ 1
Ş 1
‑@@ 1
²@@ 1
س@@ 1
ز@@ 1
ا@@ 1
ن 1
ت@@ 1
ل@@ 1
ح@@ 1
ق@@ 1
¼ 1
perso@@ 1
° 1
@@ 1
poi 1
ć 1
…@@ 1
peo@@ 1
Â@@ 1
₂@@ 1
ú@@ 1
~ 1
