a 102938
the 78319
e 65100
to 60706
di 58561
in 57037
che 47184
, 46906
and 46319
of 45782
i 41779
. 40972
are 34568
s@@ 34240
o 33230
s 31672
in@@ 30727
that 30234
o@@ 30176
e@@ 30100
d@@ 28858
la 28610
i@@ 28260
t@@ 28132
I 27351
e. 27069
e, 27052
un 26741
il 25908
è 25142
re@@ 25070
c@@ 24902
is 23873
g@@ 23398
ar@@ 23359
b@@ 23267
ri@@ 22912
p@@ 22757
st@@ 21085
per 20715
f@@ 20699
a@@ 20512
ed 20462
u@@ 20393
or@@ 20301
er@@ 20202
at@@ 20116
ing 20029
you 19813
le 19672
m@@ 19403
di@@ 18647
r@@ 18316
we 17962
l@@ 17904
y 17807
n@@ 17693
de@@ 17644
una 17358
v@@ 17004
al@@ 16910
And 16723
a, 16554
es 16454
it@@ 16258
S@@ 16210
a. 16179
ic@@ 16097
non 15924
en@@ 15867
al 15826
h@@ 15384
o, 15333
li@@ 15321
vi@@ 15287
an@@ 15273
"@@ 15250
ato 15052
it 14923
y@@ 14909
si 14900
es@@ 14581
on 14520
con@@ 14413
-- 14368
on@@ 14351
et@@ 14261
t 14243
this 14106
so 14029
si@@ 13854
un@@ 13648
s, 13641
w@@ 13370
mo@@ 13332
am@@ 13285
o. 13089
se 12975
gi@@ 12912
as@@ 12866
er 12815
av@@ 12809
d 12433
se@@ 12300
s. 12020
pi@@ 11823
ch@@ 11773
A@@ 11728
da 11669
l'@@ 11530
ac@@ 11452
was 11450
: 11419
come 11417
C@@ 11322
ro@@ 11306
per@@ 11237
sono 11234
E 11203
po@@ 11151
for 11122
do 11070
? 11013
co@@ 10694
an 10579
-@@ 10559
qu@@ 10489
D@@ 10471
i, 10427
have 10390
pro@@ 10293
su@@ 10228
i. 10193
ci@@ 10167
M@@ 10059
k@@ 9960
ol@@ 9940
im@@ 9936
del 9910
em@@ 9865
ver@@ 9802
one 9707
ma@@ 9493
with 9419
mi@@ 9394
ate 9386
ano 9294
P@@ 9288
con 9277
ere 9256
ent@@ 9234
O@@ 9165
el@@ 9143
più 8951
at 8919
to@@ 8788
ti@@ 8743
bi@@ 8724
ag@@ 8696
fi@@ 8685
or 8667
B@@ 8593
ma 8585
as 8581
for@@ 8437
le@@ 8329
ra@@ 8308
us@@ 8292
ex@@ 8281
ut@@ 8268
they 8258
can 8175
pre@@ 8169
ap@@ 8157
be 8150
ad@@ 8144
ci 8128
about 8051
E@@ 8037
N@@ 7977
sc@@ 7850
all 7798
what 7758
y. 7754
th@@ 7717
ve 7673
lo@@ 7660
y, 7653
m 7650
est@@ 7627
z@@ 7598
della 7586
par@@ 7452
ter@@ 7449
chi@@ 7419
mi 7377
ale 7306
L@@ 7253
not 7250
questo 7221
So 7158
1@@ 7151
amo 7140
do@@ 7125
lo 7114
ur@@ 7103
ll@@ 7088
T@@ 6940
so@@ 6913
re 6856
à 6853
me 6803
com@@ 6799
man@@ 6790
G@@ 6758
ec@@ 6660
en 6631
my 6602
H@@ 6594
cre@@ 6588
our 6520
ha 6506
ly 6357
ou@@ 6244
all@@ 6124
F@@ 6107
from 6105
ab@@ 6065
sp@@ 6062
sh@@ 6055
pl@@ 6025
te 6005
n 5901
no@@ 5880
ne@@ 5840
tr@@ 5839
ant@@ 5813
att@@ 5801
and@@ 5789
k 5747
'@@ 5733
ad 5714
ment@@ 5683
." 5663
de 5657
gli 5654
be@@ 5652
but 5618
nel 5587
cor@@ 5560
pa@@ 5558
like 5554
vol@@ 5525
min@@ 5468
ati 5459
it's 5454
I@@ 5428
is@@ 5428
bo@@ 5401
era 5392
R@@ 5373
gh@@ 5364
amente 5354
gu@@ 5314
tu@@ 5265
just 5218
ed@@ 5176
zione 5122
ett@@ 5104
The 5086
wh@@ 5078
es, 5076
der@@ 5051
ti 5051
people 5048
ell@@ 5043
dei 5039
V@@ 4985
out 4983
sol@@ 4974
il@@ 4901
op@@ 4899
ore 4884
ul@@ 4868
But 4843
ho 4833
these 4809
ot@@ 4805
col@@ 4778
if 4773
very 4769
ess@@ 4765
ing@@ 4762
ando 4759
ist@@ 4730
ev@@ 4727
ità 4726
by 4713
Ma 4704
he 4672
delle 4661
ca@@ 4643
fac@@ 4642
ono 4616
es. 4611
inter@@ 4589
pe@@ 4558
te@@ 4536
h 4523
om@@ 4503
me@@ 4503
vi 4486
car@@ 4478
l 4453
cosa 4450
dic@@ 4435
zz@@ 4385
p 4375
abbiamo 4369
going 4366
king 4355
sa@@ 4353
molto 4344
str@@ 4308
cui 4285
when 4271
ation 4266
more 4265
ori@@ 4261
uno 4251
port@@ 4244
essere 4244
questa 4235
no 4211
pot@@ 4204
had 4178
alla 4178
mon@@ 4138
We 4137
In 4132
mo 4120
ph@@ 4119
azione 4118
's 4110
d, 4109
gli@@ 4099
ric@@ 4080
ne 4070
up 4066
because 4063
ata 4049
lu@@ 4043
how 4041
met@@ 4035
W@@ 4016
wor@@ 4005
their 3955
perché 3946
ine 3945
get 3935
anche 3934
ar 3928
c 3925
pen@@ 3920
go 3912
li 3879
ica 3876
were 3874
your 3871
rit@@ 3867
Non 3866
sci@@ 3853
gra@@ 3852
ta 3841
br@@ 3839
pri@@ 3823
ari@@ 3819
J@@ 3806
hanno 3801
which 3786
loro 3776
ast@@ 3737
there 3736
ta@@ 3736
would 3725
fin@@ 3705
anno 3700
int@@ 3688
quando 3687
fo@@ 3664
quest@@ 3656
cent@@ 3650
ion@@ 3645
ssi@@ 3643
La 3614
sion@@ 3612
ete 3595
who 3589
ati@@ 3584
pr@@ 3576
really 3570
far@@ 3548
cer@@ 3541
think 3537
ven@@ 3512
dell'@@ 3507
os@@ 3503
dis@@ 3501
see 3480
us 3470
gen@@ 3456
into 3453
I'm 3434
ni@@ 3431
K@@ 3415
cont@@ 3396
fare 3376
su 3373
ai 3365
ent 3359
ante 3355
solo 3353
Th@@ 3346
has 3336
ther@@ 3335
iti@@ 3330
ds 3318
ò 3313
ra 3300
It's 3289
zi@@ 3289
ce 3287
ente 3274
gn@@ 3268
This 3247
fic@@ 3245
tt@@ 3244
where 3236
sta 3228
t. 3225
some 3213
persone 3212
we@@ 3210
g 3207
da@@ 3207
io 3207
ser@@ 3186
bu@@ 3182
tiv@@ 3167
sen@@ 3165
un'@@ 3160
Il 3158
au@@ 3155
ts 3153
hi@@ 3108
thing 3106
cos@@ 3103
t, 3100
enza 3097
ve@@ 3096
ali 3090
ing, 3077
them 3071
2@@ 3071
uc@@ 3050
ori 3049
est 3028
.@@ 3010
cas@@ 3009
he@@ 3006
ght 2997
Qu@@ 2996
d. 2993
ali@@ 2988
quello 2981
then 2975
go@@ 2975
j@@ 2961
It 2943
will 2936
don't 2925
0@@ 2920
oc@@ 2916
k, 2898
actually 2884
that's 2870
fe@@ 2870
cu@@ 2869
x@@ 2866
tutti 2864
end@@ 2863
You 2858
eg@@ 2857
tutto 2855
" 2854
person@@ 2838
can@@ 2833
way 2820
stu@@ 2820
du@@ 2805
ro 2800
know 2798
enti@@ 2796
♫ 2789
ico 2784
wa@@ 2773
could 2763
ing. 2758
mor@@ 2751
nella 2751
endo 2750
make 2715
acc@@ 2711
modo 2708
st 2706
ber@@ 2706
enti 2702
comp@@ 2700
ther 2693
bl@@ 2686
così 2683
ite 2678
mer@@ 2675
sto 2668
ity 2666
been 2663
other 2663
va 2661
pens@@ 2659
want 2656
ament@@ 2650
ov@@ 2641
coll@@ 2639
Y@@ 2628
all'@@ 2605
gg@@ 2603
ici@@ 2602
her@@ 2597
el 2591
mia 2591
sia 2575
ers 2565
U@@ 2564
ff@@ 2540
ks 2539
anni 2539
qual@@ 2537
enz@@ 2534
diver@@ 2530
A 2525
vit@@ 2518
able 2517
questi 2514
queste 2495
tra@@ 2494
gre@@ 2494
dov@@ 2489
mio 2489
enc@@ 2475
our@@ 2472
r 2455
ten@@ 2451
alt@@ 2448
pos@@ 2434
most 2429
fatto 2427
up@@ 2421
you@@ 2420
th 2419
possi@@ 2413
ru@@ 2412
ice 2403
than 2400
tion 2398
etto 2398
succ@@ 2388
cam@@ 2384
sap@@ 2382
; 2379
ob@@ 2372
pol@@ 2366
ciò 2364
stato 2362
ical 2361
ora 2359
ide@@ 2358
5@@ 2353
ally 2348
uto 2347
por@@ 2343
siamo 2340
È 2330
vo@@ 2326
ris@@ 2322
chi 2321
mat@@ 2319
bas@@ 2307
those 2300
do, 2297
it. 2292
er, 2290
w 2283
ir@@ 2281
ole 2278
don@@ 2258
ron@@ 2255
speci@@ 2255
ked 2254
ale. 2254
esso 2252
fer@@ 2237
re, 2237
mar@@ 2234
mol@@ 2227
fon@@ 2224
ass@@ 2223
liv@@ 2220
ch 2217
eff@@ 2212
ace 2208
et 2206
Questo 2203
They 2198
3@@ 2197
got 2195
alle 2195
things 2192
Ch@@ 2187
something 2177
ess 2177
his 2174
dent@@ 2174
cose 2171
4@@ 2167
?" 2166
ence 2165
tor@@ 2163
tri@@ 2162
part@@ 2160
import@@ 2160
tal@@ 2159
thou@@ 2151
cl@@ 2151
anti 2151
ino 2148
ely 2146
due 2146
parte 2145
new 2141
men@@ 2141
00 2139
ki@@ 2132
problem@@ 2130
TED 2129
può 2129
first 2127
time 2117
migli@@ 2113
nu@@ 2108
ina 2102
' 2095
age 2088
ello 2085
sit@@ 2083
nat@@ 2083
we're 2081
so, 2069
zion@@ 2064
thing@@ 2062
ste@@ 2060
look 2057
cambi@@ 2052
also 2044
little 2043
prima 2043
e? 2040
gener@@ 2039
sor@@ 2038
ogni 2037
coun@@ 2030
inizi@@ 2029
tra 2020
tut@@ 2020
uo@@ 2018
years 2012
aff@@ 2010
sco@@ 2010
der 2006
prob@@ 2003
St@@ 1998
only 1988
c'è 1988
azion@@ 1983
secon@@ 1978
lavor@@ 1978
parl@@ 1976
mondo 1976
are. 1973
pu@@ 1971
two 1969
An@@ 1967
zioni 1965
pic@@ 1964
deci@@ 1961
ated 1959
cit@@ 1959
now 1955
tur@@ 1950
fu@@ 1949
ed, 1949
ai@@ 1948
rac@@ 1948
8@@ 1947
dal 1946
mento 1945
sur@@ 1944
ava 1938
peri@@ 1929
over 1923
ale, 1920
buil@@ 1919
pp@@ 1918
ed. 1916
evo 1912
ce@@ 1911
5 1907
k. 1906
idea 1899
even 1898
need 1895
back 1893
- 1891
er. 1884
ded 1883
ang@@ 1880
much 1879
Quindi 1877
year@@ 1876
sul 1876
e's 1871
ann@@ 1869
nuov@@ 1869
abi@@ 1867
stra@@ 1864
gr@@ 1860
ion 1859
tion@@ 1857
tem@@ 1856
ese 1854
In@@ 1847
à, 1846
anti@@ 1841
ho@@ 1837
tto 1837
soci@@ 1836
ero 1833
dove 1825
ous 1824
trov@@ 1824
ren@@ 1823
ari 1805
do. 1800
u 1800
take 1799
sione 1798
gro@@ 1795
ding 1793
ge 1792
many 1789
son@@ 1789
Se 1789
kind 1788
spi@@ 1787
chiam@@ 1785
oi 1784
lot 1782
cell@@ 1781
rag@@ 1780
wat@@ 1779
lon@@ 1775
le. 1772
inv@@ 1770
spe@@ 1768
war@@ 1762
eri@@ 1759
... 1757
cap@@ 1755
ra, 1754
degli 1753
sic@@ 1750
9@@ 1749
are@@ 1747
noi 1747
here 1746
se, 1746
tro@@ 1746
serv@@ 1743
ment 1742
dre@@ 1742
ting 1738
poi 1738
ire 1737
ran@@ 1734
are, 1731
so. 1730
sti@@ 1728
happen@@ 1727
gia 1727
rel@@ 1724
you're 1723
she 1722
every@@ 1720
form@@ 1718
fl@@ 1718
mostr@@ 1718
world 1717
x 1717
stor@@ 1716
sulla 1715
What 1702
avi@@ 1700
lear@@ 1695
work 1695
0 1694
6@@ 1693
qualcosa 1690
Talk 1688
dur@@ 1688
comun@@ 1684
post@@ 1683
Wh@@ 1682
po 1678
anza 1677
sa 1675
use 1673
ener@@ 1673
any 1669
tras@@ 1662
quel 1659
it, 1655
tim@@ 1653
diff@@ 1653
ici 1649
its 1647
said, 1645
aggi@@ 1643
old 1642
there's 1640
f 1639
proc@@ 1639
tre 1634
Subtitles 1632
Transcript: 1632
mai 1632
uro@@ 1629
mb@@ 1628
19@@ 1622
pres@@ 1621
re. 1612
7@@ 1607
amento 1607
loo@@ 1604
L'@@ 1601
divent@@ 1594
ato. 1589
right 1584
almente 1583
vent@@ 1582
h, 1581
jec@@ 1580
anz@@ 1580
ura 1580
ani@@ 1579
uman@@ 1579
through 1578
anc@@ 1578
la@@ 1577
inf@@ 1576
medi@@ 1575
". 1571
ure 1569
val@@ 1562
sal@@ 1556
pass@@ 1554
etti@@ 1554
vedere 1554
diamo 1550
lin@@ 1546
meno 1543
every 1539
co. 1539
gh 1537
bile 1536
nostro 1534
ben@@ 1528
quella 1528
possiamo 1528
ey@@ 1521
around 1521
E' 1521
pas@@ 1518
co, 1517
differ@@ 1516
aut@@ 1513
ca 1510
eva 1510
azioni 1508
vo 1504
mean@@ 1501
vita 1499
mill@@ 1498
ful 1497
bra@@ 1494
So, 1494
her 1492
gente 1491
inc@@ 1488
picco@@ 1481
put 1480
day 1478
nec@@ 1477
Now, 1475
ulti@@ 1475
gin@@ 1474
ancora 1474
being 1472
mus@@ 1469
me, 1468
evol@@ 1468
sy@@ 1466
pla@@ 1466
iamo 1466
different 1461
present@@ 1461
compl@@ 1460
ted 1459
og@@ 1459
If 1456
body 1456
ved@@ 1454
to, 1454
dalla 1454
am 1451
some@@ 1449
bilit@@ 1445
ble 1444
ying 1444
any@@ 1441
quanto 1439
they're 1438
ic 1435
ght@@ 1433
fre@@ 1432
did 1430
essi@@ 1430
chil@@ 1426
ato, 1423
Per 1422
mu@@ 1420
costru@@ 1417
hu@@ 1413
ave 1413
alizz@@ 1413
know, 1411
co 1411
bre@@ 1410
Amer@@ 1408
off@@ 1407
ill@@ 1405
Sono 1402
fut@@ 1401
acci@@ 1401
sua 1401
ation@@ 1400
no, 1400
prov@@ 1399
good 1398
've 1398
le, 1398
e: 1395
har@@ 1393
o? 1393
fa 1393
same 1391
etti 1390
suo 1389
nostra 1383
stru@@ 1379
pren@@ 1375
them@@ 1372
qui 1370
low@@ 1369
called 1369
ally, 1369
glio 1369
ating 1367
sel@@ 1366
! 1365
sempre 1364
facci@@ 1363
ell 1362
ture 1359
d'@@ 1359
hel@@ 1358
od 1358
davvero 1357
contr@@ 1356
sm@@ 1352
b 1349
with@@ 1348
erano 1347
thin@@ 1345
grande 1345
atti@@ 1341
dist@@ 1340
ever 1337
ll 1336
sim@@ 1332
ok 1331
prog@@ 1331
acqu@@ 1330
abb@@ 1329
altro 1329
arti@@ 1328
sar@@ 1326
Ho 1325
Questa 1325
ear@@ 1322
dire@@ 1321
pow@@ 1320
Now 1319
prend@@ 1319
univer@@ 1318
let@@ 1318
uti@@ 1317
azi@@ 1314
dit@@ 1313
're 1313
10 1311
reg@@ 1310
vic@@ 1309
stori@@ 1306
ene 1306
no. 1301
ento 1301
guar@@ 1297
ach@@ 1295
I've 1294
id@@ 1293
Ci 1293
fun@@ 1292
ig@@ 1291
scri@@ 1291
mal@@ 1289
cin@@ 1289
ola 1287
evano 1286
wi@@ 1283
vostr@@ 1283
know@@ 1282
ze 1280
cul@@ 1277
dere 1277
med@@ 1276
ge@@ 1275
We@@ 1271
tecnolo@@ 1271
came 1268
tre@@ 1267
nei 1265
anim@@ 1262
imag@@ 1261
produc@@ 1261
Afric@@ 1256
doing 1255
fil@@ 1253
enzi@@ 1253
fa@@ 1250
ini 1250
test@@ 1247
rest@@ 1247
underst@@ 1247
He 1247
down 1246
senza 1246
gran@@ 1245
sull@@ 1245
ions 1241
giu@@ 1241
technolo@@ 1240
oun@@ 1239
asi 1238
pi 1238
possono 1238
ys 1237
peopl@@ 1234
that, 1230
20@@ 1230
own 1229
atter@@ 1228
guard@@ 1228
volta 1226
ant 1224
Si 1223
Abbiamo 1221
continu@@ 1220
Well, 1219
find 1218
viv@@ 1218
doman@@ 1217
ss 1214
signific@@ 1214
shi@@ 1212
colo@@ 1212
cur@@ 1210
ary 1210
star@@ 1209
I'@@ 1207
three 1206
amp@@ 1206
nell'@@ 1206
ation. 1205
cat@@ 1205
tell 1202
ragazz@@ 1202
That's 1200
glob@@ 1197
Come 1197
you. 1196
ning 1192
tempo 1192
stata 1191
ation, 1190
made 1188
arriv@@ 1188
human 1187
is, 1186
dire 1186
chang@@ 1185
sist@@ 1184
rat@@ 1183
lif@@ 1182
ke@@ 1181
esempi@@ 1175
che, 1173
ece 1172
vide@@ 1170
cost@@ 1170
avere 1167
tutte 1167
olo 1166
sem@@ 1164
used 1163
ves 1163
dat@@ 1163
ito 1163
Grazi@@ 1163
dopo 1161
iti 1160
inci@@ 1158
citt@@ 1158
cal@@ 1157
ogg@@ 1157
esi 1157
ow@@ 1156
studi@@ 1155
osc@@ 1153
nelle 1151
cerc@@ 1149
try 1148
mett@@ 1148
bar@@ 1143
qualche 1143
senti@@ 1142
é 1142
proprio 1139
abilit@@ 1138
Le 1133
lan@@ 1132
altri 1131
fron@@ 1130
talk 1130
Perché 1130
incredi@@ 1129
worl@@ 1128
bac@@ 1127
lun@@ 1127
end 1126
pag@@ 1126
rem@@ 1124
quindi 1124
den@@ 1120
avano 1120
give 1116
nostri 1115
life 1114
organi@@ 1114
avo 1113
again@@ 1111
societ@@ 1111
funzion@@ 1110
started 1109
esse 1109
cour@@ 1106
asp@@ 1106
lar@@ 1103
complet@@ 1103
aggio 1103
percent 1102
not@@ 1102
als 1101
bor@@ 1101
rei 1101
now@@ 1100
polit@@ 1100
why 1099
um@@ 1096
after 1096
po, 1096
à. 1096
might 1095
disc@@ 1094
ita 1094
lit@@ 1094
interess@@ 1094
molti 1093
beli@@ 1092
gy 1092
ak@@ 1091
Quando 1091
tratt@@ 1091
ke 1090
ia 1090
voi 1090
ica. 1087
Per@@ 1087
mag@@ 1085
2 1084
ra. 1084
'll 1083
fami@@ 1083
man 1081
Thank 1081
cominci@@ 1081
qui@@ 1080
ione 1079
tipo 1079
wo@@ 1078
econo@@ 1078
gono 1077
say 1075
we've 1073
hear@@ 1070
Al@@ 1069
didn't 1068
las@@ 1068
ly, 1067
leg@@ 1066
des@@ 1066
abor@@ 1063
last 1063
Be@@ 1062
plan@@ 1060
zza 1060
lik@@ 1059
ain@@ 1055
agli@@ 1054
ei 1049
ner@@ 1047
iment@@ 1047
me. 1046
on, 1045
ambi@@ 1045
az@@ 1044
befor@@ 1043
nor@@ 1043
to. 1043
trans@@ 1041
quell@@ 1040
impar@@ 1039
materi@@ 1038
lim@@ 1037
a? 1032
ement@@ 1031
scho@@ 1031
ous@@ 1029
," 1029
pul@@ 1029
son 1028
Ed 1028
toge@@ 1025
na 1025
fat@@ 1025
net@@ 1024
ations 1023
went 1023
There 1021
far 1021
svilu@@ 1020
tec@@ 1019
ica, 1019
lavoro 1019
ani 1018
segu@@ 1018
altra 1018
itu@@ 1017
should 1017
sing@@ 1017
oper@@ 1015
ness@@ 1013
arch@@ 1012
never 1011
Mi 1011
ativ@@ 1010
aiut@@ 1009
commun@@ 1008
po' 1008
ì 1007
red 1006
,000 1004
o: 1004
circa 1004
'è 1004
loc@@ 1003
essi 1003
fri@@ 1000
interest@@ 1000
ey 1000
de, 996
fam@@ 995
storia 995
n't 994
50 994
sion 992
dall'@@ 992
fine 988
stre@@ 988
cerv@@ 988
super@@ 987
hav@@ 987
bisogno 986
other@@ 985
altre 984
anto 980
cri@@ 977
’@@ 977
unque 977
read@@ 973
ative 973
ance 973
great 973
negli 973
scu@@ 971
zione. 970
Indi@@ 969
ase 968
seri@@ 968
kes 968
plac@@ 968
amente, 968
can't 966
big 966
mov@@ 965
Inter@@ 965
olog@@ 964
tw@@ 963
get@@ 963
parti@@ 963
Mar@@ 962
20 962
ricer@@ 962
emente 962
ere@@ 960
rap@@ 958
respon@@ 958
stesso 958
at's 957
pubbl@@ 957
viene 957
design@@ 955
termin@@ 955
remmo 955
ere's 954
rebbe 954
lat@@ 953
part 953
ral 953
sembr@@ 951
icul@@ 949
was@@ 949
punto 949
plic@@ 948
develo@@ 948
caus@@ 948
ì, 948
When 947
ght, 946
ust 945
mic@@ 945
ast 944
divi@@ 944
out@@ 943
asi@@ 942
change 942
sistema 940
mem@@ 938
program@@ 938
Ri@@ 938
govern@@ 936
stri@@ 935
consi@@ 933
pun@@ 933
All@@ 933
de. 931
dollar@@ 930
still 928
les 928
few 928
indi@@ 928
olo@@ 927
self@@ 926
Go@@ 925
sin@@ 925
each 924
solut@@ 923
eng@@ 923
ue 922
struc@@ 922
en, 922
agli 921
found 919
mentre 919
semplic@@ 919
pressi@@ 916
Di@@ 915
controll@@ 915
essa 915
bamb@@ 914
qualc@@ 914
act@@ 912
one. 911
cir@@ 911
maggi@@ 908
How 907
numer@@ 907
't 905
que 902
fatt@@ 902
ame 901
tura 900
that. 899
bri@@ 899
bell@@ 899
ordin@@ 898
Quest@@ 898
start 897
mas@@ 897
sper@@ 897
Un 897
stiamo 896
robo@@ 895
between 895
luc@@ 895
dev@@ 895
mili@@ 895
aveva 895
Con@@ 894
org@@ 894
another 894
000 894
cono 894
sost@@ 894
eve 892
fel@@ 891
cho@@ 890
attraver@@ 890
200@@ 889
bus@@ 888
next 887
ro. 886
ario 885
That 884
day, 883
show 882
inform@@ 882
ate, 882
lasci@@ 881
duc@@ 879
on. 879
sup@@ 879
econ@@ 879
looking 878
ss@@ 878
ful@@ 877
zzo 877
ator@@ 876
ente. 876
fort@@ 875
say, 875
potete 873
ali, 869
al, 868
ned 868
spen@@ 867
dete 867
stanno 867
ali. 866
spon@@ 865
[@@ 864
cresc@@ 864
ini@@ 863
dati 862
mente 861
ye@@ 859
sub@@ 859
usci@@ 858
pub@@ 857
prof@@ 857
bit 857
ol 856
problema 856
int 855
giorn@@ 854
Tut@@ 851
dello 851
propri@@ 850
è@@ 850
does 849
ì@@ 849
miei 847
fosse 847
Co@@ 846
this. 846
jo@@ 846
sai@@ 844
ft 844
New 844
pat@@ 843
gior@@ 843
lev@@ 842
tto@@ 841
legg@@ 838
won@@ 837
se. 835
dar@@ 835
ano. 835
world. 834
vir@@ 834
ure@@ 832
one, 832
ti, 832
better 830
andare 829
Cos@@ 828
ede 828
alcuni 827
insiem@@ 827
happ@@ 825
ion. 824
strut@@ 824
mark@@ 823
ybe 823
ep 823
comput@@ 823
reas@@ 823
hand@@ 822
Pen@@ 822
ro, 822
minut@@ 821
innov@@ 821
grup@@ 821
them. 819
state 819
fr@@ 818
zione, 818
creare 818
00@@ 817
individu@@ 816
al. 816
intell@@ 814
doesn't 813
ion, 813
vogli@@ 813
show@@ 812
defin@@ 812
te, 812
clo@@ 811
riv@@ 810
ically 808
ational 808
e-@@ 808
ità. 808
ampl@@ 807
fuori 807
less 806
abbi@@ 806
menti 806
data 805
fino 805
in, 804
tive 804
entr@@ 804
po. 804
insegn@@ 803
azione. 803
ban@@ 802
zed 802
immagin@@ 802
self 801
sopr@@ 801
realtà 801
milioni 801
giorno 801
Po@@ 800
visto 800
Una 800
ep@@ 798
work@@ 796
beh@@ 793
sort 793
4 792
char@@ 790
ile 790
c'@@ 790
af@@ 788
informa@@ 788
ante. 788
Così 788
this, 787
always 787
uro 787
rebbero 787
wanted 785
system@@ 785
anni, 785
comes 784
Because 784
dobbiamo 784
immag@@ 783
nostre 783
voglio 782
Pro@@ 781
sult@@ 780
sarebbe 780
ick@@ 779
capi@@ 779
attr@@ 778
,@@ 778
togra@@ 778
call 777
elec@@ 777
oce@@ 777
quelle 777
ppo 776
gioc@@ 776
the@@ 775
lo. 775
eri 775
Un@@ 774
low 773
ord@@ 773
kin@@ 772
mondo. 772
ore, 771
pes@@ 771
time, 770
grow@@ 770
ere, 770
occu@@ 770
may 768
important 767
Unit@@ 767
positi@@ 767
stat@@ 766
a: 766
ong 765
act 764
trying 764
ings 763
ans@@ 763
non@@ 763
ans 763
30 763
ose 762
rete 762
potrebbe 762
off 761
us. 761
Ma@@ 761
tele@@ 761
experi@@ 761
capac@@ 761
san@@ 761
lmente 761
Ecco 761
edi@@ 760
und 758
indi, 758
primo 758
capire 758
computer 757
dow@@ 757
pan@@ 756
bambini 756
ses 755
using 754
etting 754
anzi@@ 753
esist@@ 753
verso 753
air@@ 752
Su@@ 752
si. 751
macch@@ 751
] 750
pian@@ 750
design 749
dro@@ 749
é@@ 746
3 738
ir 737
ach 732
velo@@ 730
oni 728
8 720
nell@@ 711
lav@@ 707
dav@@ 707
dn't 704
ft@@ 703
1 691
alc@@ 691
amb@@ 690
contro@@ 682
alcun@@ 678
azz@@ 673
sign@@ 668
uni@@ 661
pt@@ 657
insi@@ 654
of@@ 653
segn@@ 651
% 643
aver@@ 639
TE@@ 633
ù@@ 632
sul@@ 623
ò@@ 616
♪ 604
bbe 602
6 598
7 596
sistem@@ 592
doll@@ 578
ele@@ 571
ill 562
gni 555
thre@@ 552
Ne@@ 551
comm@@ 544
desi@@ 542
cc@@ 542
incre@@ 520
they@@ 516
dy 508
Z@@ 501
vero 499
hap@@ 495
ell, 484
dell@@ 483
under@@ 481
rou@@ 477
oro 476
ù 474
ché 467
ver 464
gover@@ 463
actu@@ 454
mac@@ 448
9 443
ific@@ 436
wit@@ 430
coul@@ 427
fos@@ 420
gno 419
biso@@ 418
ways 417
fir@@ 411
O 405
S 399
bbero 392
!@@ 391
ut 387
— 382
bet@@ 374
sare@@ 374
that@@ 373
is. 371
razi@@ 369
ow 363
want@@ 363
D 362
à@@ 361
fro@@ 358
V 357
ever@@ 356
ank 350
aro@@ 344
tit@@ 343
ld 342
biamo 342
realt@@ 336
forma@@ 334
..@@ 329
X@@ 319
z 305
call@@ 296
Af@@ 293
tech@@ 287
C 274
ople 272
grand@@ 272
alk 265
/@@ 237
throu@@ 234
gram@@ 232
cause 225
contin@@ 224
lob@@ 224
cent 222
T 221
ow, 221
ancor@@ 206
It@@ 204
“@@ 199
?@@ 199
esem@@ 199
ich 198
ould 195
fter 191
q@@ 181
stre 178
– 177
%@@ 171
Q@@ 161
bero 150
P 147
L 147
]@@ 138
$@@ 136
muc@@ 132
” 126
&@@ 126
:@@ 126
nolo@@ 123
nov@@ 121
gn 119
altr@@ 116
litt@@ 111
° 111
X 110
M 109
B 109
q 104
;@@ 100
opl@@ 100
v 98
nex@@ 87
K 87
G 87
pre 87
stem@@ 86
”@@ 86
R 85
♫@@ 82
N 80
etter 79
U 78
cco 76
kno@@ 75
’ 58
F 51
Tran@@ 49
+ 49
Y 49
/ 44
á@@ 43
script@@ 43
í@@ 43
@@@ 42
 @@ 35
H 35
does@@ 34
Q 34
svi@@ 34
ó@@ 33
ú 33
«@@ 32
… 31
betwe@@ 30
_@@ 30
= 29
á 29
—@@ 28
Z 28
#@@ 27
É 26
ö@@ 24
ç@@ 23
) 23
$ 23
j 22
blem@@ 21
+@@ 21
[ 21
ou 20
» 20
W 19
Ѐ 19
@@ 19
Sub@@ 18
ã@@ 18
J 17
ó 17
í 15
°@@ 15
´@@ 15
­@@ 14
»@@ 14
vidu@@ 13
(@@ 12
ü@@ 11
*@@ 10
titles 10
ñ@@ 10
=@@ 10
ä@@ 9
อ@@ 8
ï@@ 6
–@@ 6
‘@@ 6
Á@@ 5
ø@@ 4
ร@@ 4
่@@ 4
ê@@ 4
_ 4
* 4
È@@ 4
´ 4
…@@ 3
@@ 3
ū@@ 3
ī@@ 3
ú@@ 3
ë@@ 3
ย@@ 3
º@@ 3
£@@ 3
“ 3
º 3
ć 2
ā@@ 2
ā 2
â@@ 2
 2
˚ 2
^@@ 2
́@@ 2
indi 2
¿@@ 2
♪@@ 2
  2
​@@ 2
@@ 1
ć@@ 1
ô@@ 1
^ 1
¼ 1
 1
ŧ@@ 1
²@@ 1
û 1
` 1
ë 1
ย 1
ѐ 1
́ 1
 1
¥ 1
½ 1
¾ 1
﻿@@ 1
ȏ@@ 1
² 1
bbiamo 1
‒@@ 1
‘ 1
