a 97674
the 77887
de 66646
to 49227
and 46464
of 45542
in 39294
, 39032
. 37776
in@@ 36931
i@@ 36610
să 34899
în 33009
s@@ 31869
o@@ 31012
re@@ 30906
e 30424
e@@ 30193
that 29887
s 28495
o 28418
ul 28327
a@@ 28164
t@@ 27677
d@@ 27462
is 26437
I 26067
n@@ 26010
c@@ 25850
p@@ 25788
l@@ 25701
at 24636
ar@@ 24590
m@@ 24412
de@@ 24399
it 24393
i 24381
b@@ 23699
st@@ 23665
că 23392
ă 23133
al@@ 22599
f@@ 22488
care 22447
u@@ 22443
h@@ 22412
r@@ 22079
an@@ 21814
și 21751
at@@ 21322
la 21094
e, 21017
e. 20878
en@@ 20339
t 20294
g@@ 20136
you 19799
er@@ 19796
un 19749
are 19611
or@@ 19554
şi 19487
it@@ 19274
v@@ 18725
-@@ 18269
ac@@ 18262
un@@ 18255
pe 17786
we 17754
ic@@ 17682
al 17525
ce 17230
on@@ 16800
ing 16718
And 16696
z@@ 16420
S@@ 16298
cu 16006
es 15911
-- 15591
mai 15564
A@@ 15514
y 15193
im@@ 15129
am 15070
y@@ 14802
ur@@ 14704
nu 14683
pentru 14448
din 14414
this 14330
C@@ 14286
to@@ 14233
ă@@ 14037
or 14015
se 13963
on 13863
i, 13825
ed 13794
s, 13537
con@@ 13451
w@@ 13266
d 13163
as@@ 13045
: 13032
k@@ 12983
ii 12693
ti@@ 12638
te@@ 12637
di@@ 12536
am@@ 12382
ma@@ 12356
M@@ 12192
s. 12191
? 12099
"@@ 11708
i. 11601
il@@ 11545
D@@ 11536
ele 11524
was 11474
el@@ 11383
este 11331
m 11295
ă. 11292
tr@@ 11279
în@@ 11215
for 11151
ch@@ 10955
ul@@ 10933
te 10739
an 10737
ad@@ 10666
is@@ 10521
ț@@ 10421
ca 10380
sp@@ 10378
have 10325
u 10317
ec@@ 10281
ate 10209
ile 10193
ap@@ 10173
th@@ 10025
ă, 9930
li@@ 9831
au 9707
et@@ 9697
with 9423
ex@@ 9362
a, 9313
ți 9162
um@@ 9160
ol@@ 9144
po@@ 9044
om@@ 9021
B@@ 8963
cre@@ 8962
ar 8940
as 8933
ce@@ 8931
ag@@ 8921
er 8896
ţ@@ 8677
a. 8663
pro@@ 8593
P@@ 8525
su@@ 8368
j@@ 8358
ea 8320
they 8311
one 8255
ne@@ 8205
ie 8191
be 8190
ro@@ 8096
es@@ 8064
can 8004
le 7990
pl@@ 7944
about 7942
ut@@ 7932
sc@@ 7926
mo@@ 7924
l 7897
ș@@ 7889
sunt 7837
le@@ 7792
what 7762
all 7738
ve@@ 7626
os@@ 7610
E@@ 7602
ţi 7594
pre@@ 7533
us@@ 7532
ea@@ 7491
ter@@ 7389
no@@ 7329
O@@ 7320
d, 7296
ş@@ 7279
t, 7252
ent@@ 7230
ve 7182
c 7169
do@@ 7157
com@@ 7134
So 7127
1@@ 7061
em@@ 7050
not 7041
ab@@ 7009
co@@ 6998
fi@@ 6891
str@@ 6852
ly 6789
vi@@ 6788
t. 6757
per@@ 6727
L@@ 6674
y. 6657
si@@ 6588
ci@@ 6552
y, 6547
ei 6506
n 6443
se@@ 6435
ăr@@ 6432
ou@@ 6408
ent 6344
ig@@ 6326
our 6248
my 6218
fac@@ 6209
ia 6194
R@@ 6191
ine 6121
ne 6112
F@@ 6111
T@@ 6106
N@@ 6084
bo@@ 5977
from 5965
ri@@ 5962
do 5962
fost 5924
H@@ 5836
I@@ 5811
p 5798
pu@@ 5793
cl@@ 5787
ăm 5783
fi 5721
G@@ 5694
like 5679
ra@@ 5678
tur@@ 5674
but 5583
for@@ 5582
so 5553
ată 5544
me@@ 5508
d. 5448
ăt@@ 5446
k 5418
it's 5417
mi@@ 5389
op@@ 5378
." 5351
cu@@ 5350
es, 5302
be@@ 5273
pi@@ 5268
cum 5265
just 5261
ast@@ 5206
ici@@ 5161
area 5155
The 5107
en 5097
wh@@ 5080
ver@@ 5077
lo@@ 5063
ist@@ 5026
par@@ 5019
ale 5016
people 4980
va 4966
gr@@ 4952
's 4932
mul@@ 4906
min@@ 4901
Şi 4873
despre 4871
ha@@ 4864
ds 4848
out 4846
very 4832
sau 4829
ing@@ 4814
these 4813
But 4808
ți@@ 4803
iti@@ 4774
când 4762
V@@ 4749
pr@@ 4729
es. 4728
ului 4710
if 4706
by 4660
wor@@ 4657
ân@@ 4654
ite 4626
qu@@ 4597
vă 4573
ta@@ 4546
ilor 4531
dar 4518
ut 4510
du@@ 4485
fo@@ 4485
ts 4458
going 4438
tre@@ 4399
bi@@ 4386
foarte 4364
ob@@ 4340
dacă 4333
ation 4324
ic 4321
Dar 4296
asta 4279
when 4265
ir@@ 4258
h 4257
sur@@ 4234
Și 4210
he 4174
sh@@ 4145
me 4124
ere@@ 4121
king 4120
num@@ 4116
because 4089
lu@@ 4069
We 4067
est@@ 4048
fr@@ 3987
gi@@ 3986
had 3983
how 3970
tu@@ 3969
more 3954
up 3952
ity 3951
r 3936
which 3933
uri 3928
sa 3926
col@@ 3924
your 3903
rea 3881
der@@ 3880
J@@ 3878
get 3873
-am 3867
us 3864
ice 3864
their 3854
ţi@@ 3844
W@@ 3808
U@@ 3761
x@@ 3737
ect@@ 3710
the@@ 3706
were 3705
ide@@ 3691
re 3681
there 3648
iz@@ 3634
would 3623
think 3615
mă 3612
uc@@ 3600
g 3594
res@@ 3589
vo@@ 3586
zi@@ 3576
sa@@ 3569
esc 3566
pe@@ 3557
acest 3556
really 3555
mil@@ 3544
u, 3524
re. 3521
inter@@ 3515
tă 3510
Nu 3506
see 3497
I'm 3475
who 3462
fer@@ 3447
K@@ 3439
era 3439
car@@ 3430
Am 3428
ni@@ 3395
face 3386
it. 3379
Th@@ 3368
az@@ 3358
cul@@ 3352
It's 3330
This 3322
ge 3306
re, 3286
er, 3265
ere 3261
lum@@ 3261
f 3260
.@@ 3258
că@@ 3258
go@@ 3251
-a 3235
pt@@ 3227
ră@@ 3227
some 3223
has 3222
em 3219
ști@@ 3214
cur@@ 3213
rec@@ 3212
fe@@ 3190
au@@ 3182
cer@@ 3173
doar 3169
ven@@ 3166
ati@@ 3166
În 3164
2@@ 3161
man@@ 3153
A 3135
sec@@ 3133
si 3131
fa@@ 3130
mon@@ 3121
where 3117
0@@ 3106
and@@ 3105
into 3098
fin@@ 3089
so@@ 3075
ho@@ 3067
th 3067
ați@@ 3056
thing 3052
♫ 3046
3@@ 3035
ing, 3035
up@@ 3034
im 3033
lucr@@ 3026
ers 3010
aceste 3005
ai 3000
bun@@ 2999
„@@ 2998
then 2992
ten@@ 2992
abil@@ 2987
şti@@ 2976
br@@ 2972
don't 2964
ică 2958
or, 2952
actually 2947
ess 2933
gre@@ 2932
av@@ 2928
them 2923
poate 2920
această 2913
loc@@ 2906
It 2905
cr@@ 2904
ând 2901
way 2896
all@@ 2895
will 2895
we@@ 2873
îm@@ 2873
You 2864
el 2862
mult 2862
comp@@ 2851
that's 2849
sim@@ 2844
Ch@@ 2831
mar@@ 2830
gu@@ 2793
tul 2793
gă@@ 2784
gen@@ 2780
plan@@ 2777
problem@@ 2768
red 2764
folos@@ 2764
sen@@ 2751
ing. 2748
da@@ 2746
nu@@ 2738
know 2724
could 2711
tion 2710
ther 2707
fic@@ 2704
ori 2700
trebuie 2696
our@@ 2688
er. 2686
den@@ 2671
cel@@ 2670
make 2667
prim@@ 2666
est 2659
ează 2654
dat@@ 2650
been 2648
want 2641
ting 2640
acest@@ 2637
bl@@ 2635
it, 2634
ph@@ 2626
are@@ 2620
compl@@ 2616
iar 2600
din@@ 2591
et 2582
itatea 2577
ang@@ 2576
mer@@ 2566
Y@@ 2562
k, 2555
ef@@ 2553
ain@@ 2528
dintre 2528
ori@@ 2527
tal@@ 2527
u. 2525
ală 2524
wa@@ 2518
ceva 2518
eg@@ 2516
prin 2507
or. 2498
able 2491
ks 2487
dr@@ 2486
other 2480
ev@@ 2474
go 2467
aţi@@ 2459
tim@@ 2457
are. 2457
dic@@ 2439
'@@ 2428
ind 2418
are, 2416
lea@@ 2415
putea 2411
tel@@ 2406
cap@@ 2406
por@@ 2399
can@@ 2398
mat@@ 2395
chiar 2391
; 2379
than 2377
pute@@ 2366
ceea 2365
cor@@ 2364
most 2350
E 2349
ect 2348
pos@@ 2345
ie@@ 2338
you@@ 2337
of@@ 2325
ment@@ 2324
rez@@ 2323
bu@@ 2321
w 2320
ted 2319
păr@@ 2315
aj@@ 2314
tic@@ 2312
prin@@ 2311
ci 2311
tion@@ 2308
olog@@ 2308
tin@@ 2298
des@@ 2297
pă@@ 2296
In 2290
ally 2286
those 2283
5@@ 2278
ica 2275
ach@@ 2273
pot 2273
â@@ 2272
igh@@ 2259
dre@@ 2252
0 2248
De 2244
ani 2243
b 2239
să-@@ 2237
In@@ 2236
at. 2229
ul. 2224
sol@@ 2224
vre@@ 2219
toate 2216
al, 2212
ge@@ 2212
ked 2208
age 2201
ving 2200
sel@@ 2200
ding 2196
înce@@ 2195
ying 2194
te. 2188
things 2184
his 2182
jo@@ 2182
ace@@ 2179
urile 2177
ib@@ 2168
something 2164
ion@@ 2164
got 2163
4@@ 2162
ation@@ 2162
ta 2162
te, 2156
ții 2155
They 2154
s-a 2152
multe 2147
ical 2139
af@@ 2138
fl@@ 2138
pri@@ 2129
mă@@ 2129
little 2122
schimb@@ 2120
ită 2116
bil@@ 2113
ază 2112
fie 2106
pen@@ 2105
vorb@@ 2102
z 2100
new 2099
thing@@ 2092
tri@@ 2089
ită@@ 2084
TED 2082
ely 2079
form@@ 2079
noi 2079
unde 2074
âr@@ 2073
- 2065
zi 2063
" 2060
we're 2060
al. 2057
gro@@ 2054
il 2047
time 2046
ez@@ 2042
spun@@ 2042
ați 2039
cal@@ 2032
ant 2025
also 2023
să@@ 2019
first 2017
look 2015
fel@@ 2013
desig@@ 2006
use 2006
-au 2003
two 1998
no 1993
over 1988
trans@@ 1984
la@@ 1980
ple 1975
Un@@ 1959
ter 1958
years 1957
oameni 1956
aț@@ 1955
only 1954
ill@@ 1952
vede@@ 1951
itu@@ 1949
ari@@ 1948
ant@@ 1947
avem 1931
medi@@ 1929
buil@@ 1928
00 1928
fel 1927
now 1924
ell@@ 1916
lui 1913
acum 1903
itat@@ 1902
mare 1901
gra@@ 1899
aș@@ 1895
cât 1895
even 1889
putem 1888
speci@@ 1883
ran@@ 1879
at, 1878
id@@ 1876
ară 1876
need 1875
5 1871
o, 1871
coun@@ 1869
mom@@ 1869
year@@ 1868
ated 1864
k. 1858
cel 1858
og@@ 1856
tiv@@ 1854
ded 1850
der 1850
st 1846
x 1841
cin@@ 1840
orul 1840
gh@@ 1833
sing@@ 1824
8@@ 1822
ul, 1820
ca@@ 1819
much 1818
back 1816
întâmpl@@ 1815
lin@@ 1813
m, 1810
vest@@ 1809
happen@@ 1806
tra@@ 1804
mic@@ 1802
tot 1799
oamenii 1797
aliz@@ 1793
î@@ 1787
What 1785
you're 1779
vie@@ 1775
here@@ 1769
vor 1765
19@@ 1764
-o 1764
timp@@ 1764
ţii 1764
aţ@@ 1763
here 1760
kind 1759
expl@@ 1757
many 1754
Iar 1754
lun@@ 1753
rel@@ 1753
ves 1750
sho@@ 1749
an, 1747
voi 1742
ase 1739
soci@@ 1739
ea, 1739
ong 1736
gener@@ 1736
pun@@ 1735
cele 1735
ser@@ 1733
disc@@ 1733
itate 1733
take 1731
lar@@ 1731
simpl@@ 1724
v 1724
lot 1720
Dacă 1719
9@@ 1717
is, 1713
inte@@ 1713
world 1711
its 1710
sig@@ 1709
apoi 1708
ear 1705
oc@@ 1705
war@@ 1701
cop@@ 1701
eu 1695
mi 1694
mu@@ 1693
ous 1691
har@@ 1690
ma 1686
produc@@ 1684
fiecare 1684
ște 1683
elor 1682
făcut 1680
ous@@ 1678
tern@@ 1678
she 1676
există 1673
on, 1672
old 1672
every@@ 1670
întreb@@ 1669
6@@ 1666
În@@ 1658
econom@@ 1655
ip@@ 1653
bin@@ 1653
ajun@@ 1653
any 1652
aţi 1651
mân@@ 1649
duc@@ 1648
come 1646
acol@@ 1645
câ@@ 1644
?" 1639
decât 1637
Talk 1630
ome 1630
ol 1627
ar, 1627
wat@@ 1626
bra@@ 1625
put 1625
ța 1623
bec@@ 1621
said, 1621
-i 1620
timp 1615
there's 1613
o. 1612
get@@ 1608
într-un 1608
pic@@ 1604
parte 1603
cea 1596
val@@ 1594
work 1593
ans 1591
inst@@ 1590
prof@@ 1590
ui 1590
through 1589
ment 1589
ță 1589
Subtitles 1588
Transcript: 1588
Wh@@ 1586
ke@@ 1586
vir@@ 1586
mem@@ 1583
fac 1578
după 1576
sea@@ 1575
7@@ 1574
ici 1572
lear@@ 1571
So, 1568
imagin@@ 1567
tat@@ 1566
imen@@ 1566
pres@@ 1565
! 1557
vin@@ 1557
func@@ 1556
serv@@ 1554
famil@@ 1552
leg@@ 1552
anim@@ 1551
dol@@ 1549
every 1543
io@@ 1539
şte 1537
pat@@ 1536
ech@@ 1534
on. 1531
ch 1531
pa@@ 1530
acel@@ 1525
ful 1524
ști 1524
An@@ 1523
dev@@ 1520
nor@@ 1517
tă@@ 1515
ări 1514
difer@@ 1511
aş@@ 1509
mode@@ 1507
low@@ 1506
lucru 1506
ren@@ 1500
different 1499
fem@@ 1499
într-o 1499
they're 1495
being 1494
ea. 1491
cred 1489
fil@@ 1487
Deci 1486
body 1484
ory 1483
copi@@ 1482
Asta 1482
Now, 1481
did 1480
her 1478
some@@ 1477
around 1477
ans@@ 1476
hel@@ 1475
right 1475
act 1475
ent, 1469
două 1467
ad 1465
nec@@ 1459
same 1457
day 1455
oare@@ 1455
If 1454
loo@@ 1452
cit@@ 1451
pol@@ 1449
sun@@ 1449
natur@@ 1447
avea 1446
bas@@ 1443
vol@@ 1439
şti 1437
ţă 1437
od 1436
pla@@ 1435
ent. 1434
ved 1431
unc@@ 1430
ber 1422
ion 1416
alt@@ 1416
know, 1415
ey@@ 1414
tr-@@ 1407
pow@@ 1404
sub@@ 1404
ed@@ 1403
cam@@ 1401
ces 1401
ic. 1400
oamen@@ 1397
kno@@ 1396
gin@@ 1396
țion@@ 1393
men@@ 1390
atât 1389
ong@@ 1387
us, 1386
aici 1386
Ac@@ 1383
good 1382
stu@@ 1382
cep@@ 1379
ese 1378
any@@ 1377
cei 1377
To@@ 1375
important 1374
până 1373
vis@@ 1372
Este 1371
ier@@ 1370
adevăr@@ 1368
realiz@@ 1367
tea 1367
thin@@ 1365
mor@@ 1364
între@@ 1363
exist@@ 1358
spec@@ 1357
loc 1354
ning 1351
cum@@ 1350
ţa 1349
una 1347
technolog@@ 1344
ur 1344
ani@@ 1342
auz@@ 1340
tehnolog@@ 1338
ame 1337
ally, 1335
he@@ 1333
ate, 1333
quest@@ 1327
10 1324
cour@@ 1323
ok 1321
nou@@ 1321
've 1320
îl 1320
with@@ 1318
studi@@ 1318
încer@@ 1314
facem 1312
ţion@@ 1309
ons 1308
called 1308
person@@ 1307
gân@@ 1305
lumea 1301
're 1299
început 1298
wr@@ 1295
ligh@@ 1295
I'@@ 1294
lucruri 1294
ose 1292
vers@@ 1292
ate@@ 1291
id 1290
I've 1290
Now 1290
put@@ 1289
Po@@ 1289
atunci 1289
medic@@ 1287
ului. 1287
uit@@ 1286
ep@@ 1285
ble 1284
ug@@ 1284
ate. 1282
vern@@ 1280
mea 1279
eas@@ 1277
um, 1274
tor@@ 1271
exper@@ 1271
ata 1270
urm@@ 1270
made 1269
reg@@ 1269
proi@@ 1269
nici@@ 1268
nevoie 1267
ină 1266
ys 1264
ary 1263
eam 1263
Ce 1263
ce, 1262
imag@@ 1259
underst@@ 1259
ents 1257
asta. 1257
bac@@ 1256
fapt 1255
ani, 1253
oare 1253
down 1252
sem@@ 1252
prote@@ 1251
unui 1251
No@@ 1246
ament@@ 1246
ris@@ 1244
lor 1243
disp@@ 1242
w, 1240
experien@@ 1239
peopl@@ 1238
port@@ 1237
uman@@ 1236
ating 1236
that, 1233
ation. 1233
h, 1232
ess@@ 1232
m. 1231
comun@@ 1231
doing 1230
prez@@ 1228
try 1227
pas@@ 1223
dec@@ 1223
ation, 1222
alte 1222
end 1221
ce. 1220
oper@@ 1220
unul 1218
importan@@ 1217
e-@@ 1217
glob@@ 1215
sum@@ 1215
ff@@ 1214
e? 1214
interes@@ 1212
Well, 1211
He 1208
you. 1207
om 1206
ure 1205
spune 1205
energ@@ 1204
mod 1204
Sunt 1202
ze 1200
ina 1200
ve. 1199
dest@@ 1199
îi 1198
Al@@ 1197
That's 1197
ția 1194
wom@@ 1192
We@@ 1192
noast@@ 1190
indi@@ 1188
exam@@ 1188
intr@@ 1184
pan@@ 1184
three 1182
tell 1181
ned 1181
plic@@ 1179
ways 1177
vel@@ 1174
find 1173
că, 1172
righ@@ 1171
abor@@ 1170
se, 1169
read@@ 1167
lion 1167
oun@@ 1165
ll 1162
ic, 1161
Pentru 1160
ole 1159
cas@@ 1159
une 1157
mod@@ 1156
fără 1155
scien@@ 1154
contr@@ 1154
tră@@ 1153
ber@@ 1151
n't 1148
oth@@ 1148
... 1148
direc@@ 1147
probab@@ 1144
sm@@ 1143
a? 1143
real@@ 1141
ajut@@ 1138
didn't 1137
ție 1134
unei 1133
exempl@@ 1129
human 1127
place 1126
tic 1125
worl@@ 1122
ei. 1122
cun@@ 1120
ros@@ 1119
poin@@ 1118
-ar 1117
sin@@ 1116
educ@@ 1116
2 1116
aşa 1116
înțel@@ 1116
ibil@@ 1115
Ei 1113
așa 1112
why 1111
ban@@ 1109
wn@@ 1109
life 1109
als 1107
continu@@ 1107
ace 1107
struc@@ 1104
peste 1104
noastr@@ 1104
dom@@ 1101
used 1100
învă@@ 1100
inv@@ 1099
polit@@ 1098
cen@@ 1096
chang@@ 1094
gă 1094
scri@@ 1093
ly, 1092
ului, 1092
vor@@ 1091
O 1090
kes 1090
dur@@ 1088
lif@@ 1088
ws 1088
side 1088
câteva 1088
electr@@ 1087
ture 1087
vom 1087
ight 1085
Si 1085
part@@ 1082
might 1082
spun 1082
bor@@ 1081
ultim@@ 1081
rap@@ 1078
son@@ 1076
dis@@ 1073
progr@@ 1072
Aceast@@ 1072
tot@@ 1071
hear@@ 1071
bine 1071
," 1070
ough@@ 1070
trebui 1068
gândi@@ 1064
avut 1064
ough 1063
e: 1063
căr@@ 1062
ep 1061
astr@@ 1061
mus@@ 1061
dat 1060
”@@ 1060
last 1058
văz@@ 1056
went 1055
mis@@ 1054
ii. 1054
after 1051
nici 1051
Când 1050
say 1048
started 1048
ke 1047
There 1045
again@@ 1045
interest@@ 1044
aic@@ 1043
talk 1042
hea@@ 1042
oul@@ 1042
'll 1040
tre 1040
ei, 1039
ver 1038
suc@@ 1038
obi@@ 1038
percent 1037
bine, 1036
ți, 1034
Ex@@ 1032
plac@@ 1032
dezvol@@ 1032
” 1031
ii, 1031
should 1028
eze 1028
spus 1028
give 1027
20@@ 1026
own 1026
we've 1025
tive 1025
res 1023
orii 1023
deci@@ 1021
atur@@ 1020
Thank 1019
ear@@ 1019
toge@@ 1019
priv@@ 1018
icul@@ 1017
erau 1017
luc@@ 1016
commun@@ 1013
ell 1013
act@@ 1013
ga@@ 1011
aceasta 1010
ty 1009
ity. 1008
organiz@@ 1007
mag@@ 1007
jur@@ 1005
w. 1002
prob@@ 999
fapt, 999
du-@@ 998
son 997
great 996
20 996
,000 995
ces@@ 995
devel@@ 993
never 993
Indi@@ 993
constru@@ 990
viaț@@ 988
bit 987
self@@ 986
materi@@ 986
ere's 984
me, 983
ations 983
suntem 982
informa@@ 981
sal@@ 980
Americ@@ 979
eau 977
sist@@ 976
scho@@ 976
in, 975
imb@@ 975
trei 975
reas@@ 973
low 972
let@@ 971
activ@@ 969
Așa 968
ămân@@ 966
big 965
Mar@@ 964
don@@ 963
ust 962
at's 961
star@@ 959
ativ@@ 959
ven 959
us. 958
ane 958
change 957
odată 957
can't 956
meu 956
vedea 956
pac@@ 955
stri@@ 955
bre@@ 953
rest@@ 951
popul@@ 950
ost 949
sy@@ 948
Aşa 948
.” 947
ste 945
off@@ 944
inf@@ 944
ast 943
et. 942
amen@@ 941
deven@@ 941
each 940
tem@@ 939
ali@@ 939
răspun@@ 939
ţie 939
an. 937
prea 937
belie@@ 936
pra@@ 936
sistem@@ 935
fur@@ 933
next 932
en, 932
eng@@ 932
When 932
Pr@@ 932
acea 931
inform@@ 930
incredi@@ 930
uz@@ 929
îmi 929
few 928
ist 928
imit@@ 928
start 927
200@@ 927
50 926
afl@@ 926
ity, 925
publ@@ 925
iliz@@ 925
Mul@@ 925
da 924
ţia 924
lik@@ 922
ond 922
ies 921
t? 921
vide@@ 921
ance 920
țin@@ 920
viz@@ 919
still 918
ed, 917
wn 917
show 916
say, 915
idea 915
ei@@ 915
intel@@ 914
possi@@ 913
Go@@ 912
Ar@@ 911
ile, 910
ale, 910
nostr@@ 910
înţel@@ 909
minu@@ 908
asupra 908
robo@@ 905
bur@@ 905
cent@@ 905
sk@@ 903
ful@@ 902
ner@@ 900
abl@@ 900
000 900
mun@@ 900
et, 897
anum@@ 897
asta, 897
eri@@ 895
und@@ 895
centr@@ 895
uș@@ 895
looking 892
happ@@ 892
persoan@@ 891
bă@@ 890
ale. 888
this. 887
ey 886
ative 886
lat@@ 886
does 884
came 884
neur@@ 883
ile. 883
ed. 882
part 882
Pro@@ 882
pet@@ 881
How 880
another 879
ice. 879
acesta 879
astfel 878
ean 877
fore 877
ten 877
data 877
ick@@ 876
Acesta 876
tw@@ 875
sta 874
between 873
cut 873
ani. 873
orice 873
asemen@@ 873
mark@@ 872
toată 872
cat@@ 871
better 870
ically 869
tex@@ 869
Î@@ 869
That 868
univers@@ 868
ice, 866
sup@@ 866
sion@@ 866
iment@@ 866
prezent@@ 866
care@@ 864
feren@@ 863
spre 863
that. 860
found 858
3 858
sor@@ 858
und 857
Dec@@ 857
won@@ 856
fre@@ 856
out@@ 855
de, 855
erea 855
ţi, 855
man 853
ys@@ 853
ală. 852
Vă 852
bli@@ 851
evolu@@ 849
Ace@@ 849
fri@@ 848
societ@@ 847
dez@@ 846
maj@@ 845
sear@@ 845
buc@@ 845
apro@@ 845
esc. 844
Cum 843
iar@@ 842
e's 842
viaţ@@ 842
partic@@ 841
solu@@ 841
clas@@ 841
lan@@ 840
tran@@ 840
ever 838
tit@@ 838
altă 836
over@@ 835
od@@ 835
ybe 834
childre@@ 834
proces@@ 833
was@@ 832
day, 831
um 831
priet@@ 831
oz@@ 831
sai@@ 830
tem 830
1 829
control@@ 829
4 829
înseamnă 828
vreau 828
doesn't 827
consi@@ 826
ben@@ 825
uni@@ 825
dă 825
între 825
Stat@@ 824
heal@@ 824
eff@@ 824
cân@@ 823
os 822
in. 821
jec@@ 821
sion 821
chi@@ 821
aren@@ 821
descoper@@ 821
dou@@ 820
ust@@ 819
baz@@ 819
unea 819
întâ@@ 819
ise 818
ti 818
trebu@@ 818
using 816
dist@@ 816
real 815
ș 815
them. 813
ari 813
Pu@@ 813
încă 813
this, 811
aproape 809
ore 808
ue 808
Er@@ 808
cam 807
gri@@ 806
bol@@ 805
sort 804
tip@@ 804
bat@@ 804
punc@@ 803
ilor. 803
Acum 803
sta@@ 802
potri@@ 802
ave@@ 801
stud@@ 800
ub@@ 799
La 798
dus 798
ioane 798
respon@@ 797
acel 797
tion. 796
m-am 796
,@@ 795
mine 794
crede@@ 793
ordin@@ 791
wanted 791
evi@@ 791
vă@@ 791
ime 789
ft 788
cho@@ 788
dig@@ 788
făcu@@ 787
plă@@ 787
ara 785
ator@@ 784
lă@@ 783
Afric@@ 781
tions 780
% 780
uri. 780
Se 779
bil 779
puţ@@ 778
thought 776
Because 776
prima 776
ot@@ 775
extre@@ 774
fund@@ 773
ării 773
hal@@ 772
dn't 772
New 772
pare 772
Ş@@ 772
world. 771
vân@@ 771
sit@@ 770
call 770
ele. 770
istor@@ 769
i-a 768
pret@@ 766
ală, 766
system@@ 765
perm@@ 765
cineva 765
time, 764
viol@@ 764
Trebu@@ 764
cat 763
differen@@ 757
ien@@ 756
eaz@@ 753
ir 752
fă@@ 749
Ș@@ 748
8 740
înt@@ 740
lit@@ 730
[@@ 723
fap@@ 723
ill 721
fol@@ 711
constr@@ 711
00@@ 709
sch@@ 709
is. 699
fir@@ 694
Z@@ 691
6 683
Ne@@ 678
hap@@ 677
ach 676
wi@@ 674
ş 670
TE@@ 669
organ@@ 668
actu@@ 659
dy 648
desc@@ 642
7 639
♪ 637
't 636
bel@@ 633
chil@@ 623
Afr@@ 613
] 606
uch 600
les 589
' 588
syst@@ 579
though@@ 559
som@@ 541
pul@@ 533
hu@@ 530
thre@@ 528
poi 526
Sun@@ 517
esc@@ 517
resp@@ 490
ell, 488
they@@ 487
’@@ 486
gan@@ 481
wit@@ 479
j 479
under@@ 476
arte 476
?@@ 474
X@@ 463
erg@@ 460
incre@@ 459
!@@ 457
wan@@ 448
— 444
9 435
– 432
bet@@ 422
adev@@ 411
Amer@@ 407
ât 398
pă 396
diff@@ 384
that@@ 378
D 373
perc@@ 370
acă 365
Aș@@ 361
ank 353
S 342
there@@ 342
aro@@ 339
tru 338
într-@@ 337
Aş@@ 327
V 322
thr@@ 318
ich 314
contin@@ 314
/@@ 310
Q@@ 308
onom@@ 305
tech@@ 304
nevo@@ 294
ǎ 292
ulu@@ 290
perso@@ 285
Ho@@ 279
alk 273
ț 270
import@@ 268
treb@@ 259
țel@@ 256
ape 252
teh@@ 252
nă 245
forma@@ 243
emen@@ 242
call@@ 235
tle 233
ţel@@ 232
ld 228
ever@@ 227
aceast@@ 225
evol@@ 219
lob@@ 216
atunc@@ 216
%@@ 216
C 214
ǎ@@ 210
ţ 209
ou 208
ecare 206
eren@@ 205
T 204
empl@@ 200
ould 199
N 187
Tre@@ 176
..@@ 175
fam@@ 175
ause 173
ână 169
blem@@ 160
elec@@ 159
seam@@ 156
rom 154
ără 154
ã 154
pre 152
mpl@@ 150
$@@ 147
&@@ 142
B 141
eva 138
;@@ 137
P 129
nolog@@ 128
Ă@@ 125
:@@ 124
q@@ 120
]@@ 120
east@@ 112
Pen@@ 109
M 106
R 104
X 102
câte@@ 98
ã@@ 97
“@@ 96
K 88
Ț@@ 86
seamnă 84
Bec@@ 80
L 76
nd 76
nex@@ 73
gh 73
é@@ 73
Tran@@ 70
It@@ 69
F 65
U 65
G 62
q 59
ȋ@@ 56
Ţ@@ 50
upr@@ 48
H 44
Y 41
í@@ 41
+ 40
á@@ 38
does@@ 38
) 38
asupr@@ 37
î 37
= 34
Q 33
/ 33
W 30
script@@ 28
é 26
betwe@@ 25
J 25
_@@ 25
Sub@@ 25
@@@ 23
ç@@ 23
Z 21
#@@ 21
… 20
–@@ 20
$ 20
 @@ 19
ö@@ 19
ó@@ 17
—@@ 17
è@@ 16
+@@ 15
♫@@ 13
ü@@ 12
*@@ 11
ø@@ 10
ó 10
[ 9
°@@ 9
’ 8
* 8
â 8
ñ@@ 7
à@@ 7
á 7
titles 6
_ 6
‘@@ 6
― 6
ć@@ 5
@@ 5
@@ 5
¨@@ 5
Á@@ 4
^ 4
ê@@ 4
º@@ 4
# 4
„ 4
`@@ 4
´@@ 4
ȃ@@ 4
í 3
à 3
«@@ 3
» 3
“ 3
ù 2
è 2
送@@ 2
你@@ 2
葱 2
˚ 2
^@@ 2
ë@@ 2
€@@ 2
ě@@ 2
É@@ 2
Ç@@ 2
ä@@ 2
` 2
)@@ 2
♪@@ 2
¨ 2
(@@ 2
™ 2
و@@ 2
« 2
»@@ 2
½ 2
：@@ 2
ā@@ 2
́@@ 1
ï@@ 1
=@@ 1
æ@@ 1
¢ 1
ø 1
ò@@ 1
  1
£@@ 1
ú 1
@ 1
Ş 1
‑@@ 1
²@@ 1
س@@ 1
ز@@ 1
ا@@ 1
ن 1
ت@@ 1
ل@@ 1
ح@@ 1
ق@@ 1
¼ 1
° 1
@@ 1
ć 1
…@@ 1
peo@@ 1
Â@@ 1
₂@@ 1
ú@@ 1
~ 1
