a 79410
the 78319
di 56913
to 54970
in 54797
e 47861
che 46604
of 45782
and 44913
that 30234
la 28023
I 26922
un 26200
il 25908
è 24838
are 24533
i 24117
is 23873
per 20715
, 20060
. 20022
you 19813
we 17962
una 17152
And 16723
le 16138
non 15924
s 15813
o 15706
s@@ 15603
e, 15458
e. 15053
it 14923
-- 14368
this 14106
ed 13821
in@@ 13760
re@@ 13593
si 13548
on 12242
ri@@ 12130
al 12098
ing 11756
was 11450
i@@ 11449
a, 11292
"@@ 11269
sono 11234
E 11203
for 11122
a. 10816
come 10723
t@@ 10693
S@@ 10590
da 10526
have 10390
e@@ 10281
o. 10152
l'@@ 10063
es 9920
o, 9916
ato 9844
di@@ 9792
a@@ 9683
del 9645
ar@@ 9639
with 9419
con 9277
o@@ 9267
de@@ 9241
se 9193
an 9104
b@@ 9023
più 8951
g@@ 8929
st@@ 8867
f@@ 8792
p@@ 8732
at 8709
so 8643
: 8615
do 8572
s, 8511
-@@ 8353
l@@ 8336
d@@ 8319
they 8258
? 8182
can 8175
be 8150
as 8054
about 8051
s. 7961
er@@ 7940
y 7932
ate 7781
what 7758
it@@ 7665
ci 7623
della 7586
ma 7491
u@@ 7411
or 7360
n@@ 7313
ano 7254
all 7231
questo 7221
on@@ 7195
So 7158
one 7115
er 7083
not 6950
m@@ 6942
c@@ 6799
y@@ 6756
v@@ 6723
an@@ 6668
my 6602
at@@ 6563
am@@ 6543
es@@ 6539
ha 6506
i, 6504
en@@ 6500
r@@ 6448
ale 6441
al@@ 6366
A@@ 6357
M@@ 6352
un@@ 6334
or@@ 6271
mi 6230
from 6105
co@@ 6008
ro@@ 5952
B@@ 5869
D@@ 5859
h@@ 5828
our 5819
ic@@ 5752
y, 5689
T@@ 5668
li@@ 5659
gli 5654
but 5618
i. 5588
nel 5587
se@@ 5579
like 5554
t 5550
per@@ 5493
et@@ 5468
it's 5454
con@@ 5444
av@@ 5352
k@@ 5351
si@@ 5319
lo 5317
me 5316
pro@@ 5286
just 5218
pi@@ 5212
C@@ 5164
im@@ 5092
ver@@ 5085
es, 5076
people 5048
dei 5039
P@@ 5028
mi@@ 5000
ac@@ 4938
el@@ 4898
But 4843
w@@ 4822
as@@ 4817
these 4809
era 4795
The 4779
if 4773
very 4769
E@@ 4748
y. 4747
by 4713
Ma 4704
fi@@ 4684
mo@@ 4679
delle 4661
ad@@ 4659
ti@@ 4645
es. 4611
ho 4575
z@@ 4531
pre@@ 4502
cosa 4450
abbiamo 4369
ol@@ 4368
ch@@ 4367
going 4366
out 4359
ap@@ 4348
molto 4344
ad 4340
cui 4285
N@@ 4274
when 4271
more 4265
em@@ 4258
essere 4244
questa 4235
ci@@ 4214
had 4178
alla 4178
ere 4159
We 4137
In 4132
R@@ 4124
d 4123
ra@@ 4121
so@@ 4112
to@@ 4108
ando 4091
because 4063
how 4041
L@@ 4039
O@@ 4028
vi@@ 4014
ati 4005
." 3985
F@@ 3979
po@@ 3972
vi 3957
their 3955
perché 3946
ent@@ 3944
get 3935
anche 3934
re 3907
were 3874
your 3871
de 3834
ata 3830
ur@@ 3816
ag@@ 3803
hanno 3801
ation 3794
which 3786
zione 3785
loro 3776
us@@ 3748
there 3736
would 3725
up 3714
quando 3687
cre@@ 3676
do@@ 3674
th@@ 3672
azione 3663
lo@@ 3657
G@@ 3653
Non 3643
ex@@ 3637
he 3632
ly 3623
att@@ 3616
La 3614
no@@ 3598
who 3589
for@@ 3588
really 3570
ore 3564
think 3537
dell'@@ 3507
H@@ 3499
est@@ 3491
see 3480
chi@@ 3471
into 3453
ab@@ 3448
bi@@ 3444
inter@@ 3441
I'm 3434
gi@@ 3400
ut@@ 3394
com@@ 3390
le@@ 3377
fare 3376
su 3373
sh@@ 3369
col@@ 3366
solo 3353
par@@ 3342
has 3336
ti 3330
ing@@ 3305
su@@ 3295
'@@ 3290
It's 3289
min@@ 3281
ica 3275
This 3247
us 3236
where 3236
vol@@ 3232
some 3213
ma@@ 3212
persone 3212
go 3181
car@@ 3165
Il 3158
dis@@ 3147
uno 3136
m 3134
and@@ 3112
ec@@ 3097
them 3071
cor@@ 3065
1@@ 3053
man@@ 3024
amente 3013
ai 3004
quello 2981
str@@ 2978
then 2975
ono 2968
be@@ 2960
It 2943
will 2936
don't 2925
ter@@ 2916
actually 2884
bo@@ 2878
te 2872
that's 2870
W@@ 2865
tutti 2864
d, 2861
ll@@ 2861
ul@@ 2860
You 2858
tutto 2855
k 2844
qu@@ 2842
ali 2827
sp@@ 2826
no 2804
tr@@ 2803
know 2798
♫ 2789
all@@ 2785
ne 2781
un'@@ 2772
could 2763
ing. 2758
nella 2751
gen@@ 2748
pa@@ 2737
K@@ 2726
pl@@ 2725
make 2715
modo 2708
I@@ 2705
sol@@ 2697
così 2683
ine 2681
ev@@ 2679
ori@@ 2665
been 2663
other 2663
want 2656
far@@ 2646
ist@@ 2645
ità 2630
io 2627
is@@ 2626
ent 2616
ente 2604
fin@@ 2586
sia 2575
ing, 2573
ers 2565
il@@ 2539
anni 2539
J@@ 2537
tu@@ 2535
able 2517
questi 2514
pe@@ 2511
queste 2495
mio 2489
ico 2486
ant@@ 2481
sc@@ 2449
ò 2428
fatto 2427
zz@@ 2424
ar 2421
ot@@ 2418
's 2402
than 2400
tion 2398
ciò 2364
stato 2362
ally 2348
mia 2340
È 2330
amo 2327
cont@@ 2322
all'@@ 2322
pot@@ 2321
way 2318
n 2315
ed@@ 2310
der@@ 2305
those 2300
mor@@ 2295
it. 2292
ve 2292
" 2284
op@@ 2284
ett@@ 2277
ta 2273
me@@ 2272
d. 2261
sta 2257
ale. 2254
ca@@ 2252
ts 2239
gu@@ 2233
dic@@ 2220
ve@@ 2216
te@@ 2210
ric@@ 2203
Questo 2203
They 2198
3@@ 2197
got 2195
things 2192
met@@ 2192
p 2191
V@@ 2190
something 2177
ven@@ 2175
his 2174
cose 2171
ess@@ 2169
enza 2162
ity 2161
k, 2161
2@@ 2149
oc@@ 2148
due 2146
parte 2145
; 2144
h 2140
enti 2131
TED 2129
può 2129
first 2127
pri@@ 2120
time 2117
siamo 2098
ce 2086
we're 2081
ne@@ 2066
ell@@ 2064
look 2057
also 2044
little 2043
prima 2043
e? 2040
gener@@ 2039
ogni 2037
ment@@ 2034
est 2027
tra 2020
ta@@ 2019
vo@@ 2018
years 2012
ite 2012
go@@ 2008
endo 2008
cer@@ 2005
en 1996
br@@ 1995
only 1988
c'è 1988
we@@ 1984
t. 1980
mondo 1976
mon@@ 1975
are. 1973
two 1969
A 1965
?" 1955
now 1955
ed, 1949
most 1946
dal 1946
bu@@ 1942
mar@@ 1932
fac@@ 1923
over 1923
ale, 1920
ir@@ 1917
ni@@ 1917
ed. 1916
even 1898
ph@@ 1896
need 1895
back 1893
- 1891
va 1888
ali@@ 1885
er. 1884
much 1879
port@@ 1879
Quindi 1877
acc@@ 1876
sul 1876
ical 1873
ari@@ 1865
chi 1864
.@@ 1855
sen@@ 1852
t, 1850
ice 1850
ete 1850
age 1848
In@@ 1847
sa@@ 1842
li 1826
dove 1825
ous 1824
st 1814
er, 1804
take 1799
re, 1799
mat@@ 1792
ori 1790
many 1789
Se 1789
kind 1788
lot 1782
ina 1779
g 1772
thing 1768
new 1765
... 1757
degli 1753
noi 1747
here 1746
poi 1738
wh@@ 1737
ks 1734
are, 1731
sti@@ 1728
so, 1727
you're 1723
she 1722
gh@@ 1721
world 1717
sulla 1715
l 1705
What 1702
work 1695
int@@ 1693
qualcosa 1690
Talk 1688
os@@ 1686
ante 1684
ser@@ 1677
use 1673
4@@ 1669
quel 1659
An@@ 1657
it, 1655
ast@@ 1652
alt@@ 1649
its 1647
said, 1645
there's 1640
bl@@ 1637
Subtitles 1632
Transcript: 1632
mai 1632
por@@ 1631
fer@@ 1629
pen@@ 1627
cas@@ 1626
ated 1624
ris@@ 1620
ou@@ 1619
c 1617
x@@ 1616
re. 1612
gli@@ 1609
mo 1605
sur@@ 1604
L'@@ 1601
aff@@ 1600
zioni 1600
alle 1599
cu@@ 1595
ato. 1589
right 1584
son@@ 1584
almente 1583
through 1578
da@@ 1575
dov@@ 1575
ava 1568
idea 1567
end@@ 1565
ero 1564
anno 1558
vedere 1554
ora 1549
uc@@ 1545
ati@@ 1542
iti@@ 1542
every 1539
nostro 1534
quella 1528
possiamo 1528
sione 1525
ra 1523
around 1521
E' 1521
tra@@ 1520
et 1514
k. 1513
azioni 1508
fo@@ 1505
pol@@ 1500
ici@@ 1499
vita 1499
sor@@ 1498
So, 1494
Qu@@ 1493
her 1492
gente 1491
can@@ 1489
cl@@ 1488
put 1480
fu@@ 1478
Now, 1475
ancora 1474
being 1472
ber@@ 1470
fe@@ 1469
me, 1468
U@@ 1467
king 1464
different 1461
ted 1459
If 1456
zi@@ 1454
dalla 1454
fl@@ 1450
any 1445
quanto 1439
they're 1438
pens@@ 1438
ion@@ 1437
form@@ 1435
ic 1435
th 1433
did 1430
rit@@ 1427
ato, 1423
Per 1422
mer@@ 1418
eg@@ 1417
zion@@ 1414
ru@@ 1412
know, 1411
part@@ 1409
ari 1408
pres@@ 1407
off@@ 1407
ino 1406
ici 1403
Sono 1402
sua 1401
ds 1399
good 1398
ence 1396
e: 1395
' 1394
o? 1393
fa 1393
same 1391
7@@ 1389
om@@ 1389
suo 1389
tt@@ 1384
rel@@ 1384
ten@@ 1383
anti 1383
nostra 1383
tras@@ 1379
9@@ 1378
qui 1370
j@@ 1369
called 1369
are@@ 1368
ang@@ 1366
! 1365
sempre 1364
ass@@ 1362
d'@@ 1359
fic@@ 1357
davvero 1357
etto 1352
person@@ 1350
uto 1346
grande 1345
". 1343
cent@@ 1333
altro 1329
Ho 1325
Questa 1325
ding 1323
lin@@ 1320
Now 1319
so. 1319
gr@@ 1314
x 1314
10 1311
du@@ 1308
co, 1303
pic@@ 1295
I've 1294
sci@@ 1294
Ci 1293
tor@@ 1291
uman@@ 1291
do, 1289
6@@ 1289
tiv@@ 1287
tri@@ 1285
wi@@ 1283
cam@@ 1282
eva 1278
dere 1277
wor@@ 1275
ge@@ 1275
ting 1274
la@@ 1270
amento 1266
nei 1265
ai@@ 1264
5@@ 1264
spe@@ 1263
ded 1260
differ@@ 1259
doing 1255
do. 1253
ch 1253
co. 1250
possi@@ 1248
men@@ 1248
sa 1247
He 1247
down 1246
senza 1246
cambi@@ 1242
possono 1238
that, 1230
own 1229
volta 1226
ho@@ 1225
ant 1224
Si 1223
ide@@ 1222
Abbiamo 1221
continu@@ 1220
Well, 1219
find 1218
Th@@ 1215
stra@@ 1211
three 1206
nell'@@ 1206
ation. 1205
pu@@ 1205
cat@@ 1205
0@@ 1204
sion@@ 1204
sal@@ 1204
tre 1203
tell 1202
gg@@ 1200
That's 1200
speci@@ 1200
wa@@ 1199
Come 1197
you. 1196
Ch@@ 1194
tempo 1192
stata 1191
ation, 1190
made 1188
human 1187
is, 1186
dire 1186
rat@@ 1183
bas@@ 1183
che, 1173
ann@@ 1171
r 1171
cost@@ 1170
ge 1167
cos@@ 1167
avere 1167
tutte 1167
olo 1166
used 1163
ssi@@ 1163
dat@@ 1163
ying 1162
dopo 1161
eri@@ 1159
cal@@ 1157
pr@@ 1156
diamo 1154
nelle 1151
bre@@ 1150
ating 1149
diver@@ 1145
bar@@ 1143
qualche 1143
tal@@ 1141
se, 1140
proprio 1139
vit@@ 1133
Le 1133
altri 1131
talk 1130
Perché 1130
pag@@ 1126
ment 1124
quindi 1124
avano 1120
erano 1119
give 1116
ever 1115
nostri 1115
dist@@ 1114
life 1114
gn@@ 1114
import@@ 1111
started 1109
war@@ 1109
esse 1109
ely 1107
hi@@ 1106
aggio 1103
percent 1102
not@@ 1102
b 1100
why 1099
arti@@ 1099
evo 1097
after 1096
à. 1096
might 1095
molti 1093
ak@@ 1091
Quando 1091
ia 1090
voi 1090
ica. 1087
enc@@ 1085
mag@@ 1085
ra. 1084
Thank 1081
am 1079
tipo 1079
anza 1078
St@@ 1076
say 1075
we've 1073
gra@@ 1072
parl@@ 1071
didn't 1068
ly, 1067
mostr@@ 1067
leg@@ 1066
pass@@ 1064
last 1063
val@@ 1063
aggi@@ 1062
lu@@ 1060
ob@@ 1058
ra, 1058
up@@ 1057
anc@@ 1054
iamo 1054
he@@ 1052
à 1052
tro@@ 1051
8@@ 1048
el 1046
inc@@ 1046
me. 1046
on, 1045
tre@@ 1045
deci@@ 1044
trans@@ 1041
etti 1041
reg@@ 1040
Y@@ 1039
day 1039
ani@@ 1039
materi@@ 1038
meno 1038
mento 1037
ran@@ 1035
evol@@ 1032
a? 1032
test@@ 1029
," 1029
Ed 1028
sto 1028
ther@@ 1024
ations 1023
went 1023
ki@@ 1022
ved@@ 1022
sap@@ 1022
There 1021
mus@@ 1021
far 1021
ica, 1019
lavoro 1019
ani 1018
problem@@ 1017
itu@@ 1017
should 1017
quest@@ 1017
au@@ 1017
19@@ 1017
enti@@ 1017
anti@@ 1017
5 1016
oper@@ 1015
ov@@ 1012
never 1011
Mi 1011
ativ@@ 1010
vent@@ 1010
po' 1008
red 1006
ked 1005
ary 1005
ca 1005
,000 1004
prov@@ 1004
o: 1004
circa 1004
w 1002
post@@ 1000
colo@@ 1000
ess 999
ear@@ 997
de, 996
storia 995
50 994
fon@@ 993
sion 992
ire 992
dall'@@ 992
ren@@ 991
fine 988
stre@@ 988
gro@@ 987
inizi@@ 986
bisogno 986
altre 984
der 982
ff@@ 982
liv@@ 981
’@@ 977
star@@ 975
ative 973
ance 973
great 973
negli 973
her@@ 972
20@@ 972
zione. 970
produc@@ 969
ase 968
amente, 968
can't 966
big 966
Mar@@ 962
20 962
stesso 958
od 957
divent@@ 957
viene 957
part 953
ini 953
à, 949
punto 949
rac@@ 947
When 947
ey@@ 943
don@@ 943
aut@@ 943
change 942
acci@@ 941
sistema 940
mem@@ 938
sic@@ 938
Ri@@ 938
cur@@ 936
serv@@ 935
gre@@ 933
spi@@ 932
de. 931
still 928
les 928
few 928
each 924
é 924
comun@@ 924
tem@@ 923
arriv@@ 922
sco@@ 920
found 919
mentre 919
sit@@ 918
pi 917
Di@@ 915
came 914
ill@@ 912
one. 911
fil@@ 911
har@@ 910
to, 908
How 907
iti 906
end 906
ght@@ 905
wat@@ 905
den@@ 905
Wh@@ 904
essi@@ 904
ese 900
alizz@@ 900
that. 899
bell@@ 899
start 897
mas@@ 897
Un 897
stiamo 896
between 895
aveva 895
Con@@ 894
another 894
ole 894
soci@@ 891
cho@@ 890
200@@ 889
als 888
next 887
ario 885
That 884
show 882
studi@@ 882
ate, 882
lasci@@ 881
um@@ 879
on. 879
sup@@ 879
looking 878
ow@@ 878
ss@@ 878
avo 877
ator@@ 876
ente. 876
say, 875
cap@@ 873
potete 873
ali, 869
al, 868
stanno 867
ali. 866
guar@@ 865
[@@ 864
ini@@ 863
funzion@@ 862
dati 862
bit 857
abi@@ 856
problema 856
ke 854
polit@@ 853
plan@@ 852
coll@@ 852
ther 852
inf@@ 851
does 849
bile 847
miei 847
fosse 847
trov@@ 847
Co@@ 846
ble 846
this. 846
chiam@@ 846
New 844
ner@@ 843
dit@@ 843
ze 843
cit@@ 843
any@@ 841
to. 839
uti@@ 839
lavor@@ 839
legg@@ 838
stor@@ 836
se. 835
dar@@ 835
ano. 835
vo 835
ragazz@@ 835
world. 834
pren@@ 834
dire@@ 833
one, 832
ti, 832
atti@@ 832
mol@@ 831
better 830
andare 829
viv@@ 828
zza 827
alcuni 827
body 825
compl@@ 824
ion. 824
comput@@ 823
hand@@ 822
ro, 822
innov@@ 821
ene 821
them. 819
state 819
Per@@ 819
tur@@ 818
zione, 818
creare 818
evano 818
bra@@ 817
individu@@ 816
al. 816
old 814
doesn't 813
ion, 813
defin@@ 812
te, 812
h, 811
e-@@ 808
ità. 808
ron@@ 807
fuori 807
less 806
data 805
fino 805
in, 804
f 804
ain@@ 804
tive 804
entr@@ 804
tut@@ 803
insegn@@ 803
azione. 803
ban@@ 802
nu@@ 802
immagin@@ 802
realtà 801
milioni 801
giorno 801
visto 800
Una 800
Al@@ 799
ep@@ 798
ita 798
le. 797
sem@@ 797
interess@@ 797
work@@ 796
u 795
dre@@ 793
sort 793
4 792
char@@ 790
proc@@ 790
segu@@ 790
man 789
ions 788
af@@ 788
no, 788
ante. 788
Così 788
ement@@ 787
this, 787
always 787
anim@@ 786
fun@@ 785
wanted 785
anni, 785
comes 784
Because 784
dobbiamo 784
ach@@ 783
nostre 783
giu@@ 782
voglio 782
Pro@@ 781
ro 781
mal@@ 780
sarebbe 780
loc@@ 779
ambi@@ 778
call 777
oce@@ 777
quelle 777
low@@ 776
the@@ 775
anz@@ 775
lo. 775
aiut@@ 775
comp@@ 774
bac@@ 773
00 772
mondo. 772
ore, 771
pes@@ 771
time, 770
rest@@ 770
ere, 770
may 768
important 767
positi@@ 767
stat@@ 766
a: 766
act 764
trying 764
ings 763
ans 763
30 763
medi@@ 762
ose 762
rete 762
potrebbe 762
off 761
us. 761
Ma@@ 761
Ecco 761
edi@@ 760
primo 758
capire 758
computer 757
dow@@ 757
pan@@ 756
pos@@ 756
bambini 756
ses 755
try 755
using 754
acqu@@ 753
esist@@ 753
verso 753
air@@ 752
Su@@ 752
si. 751
] 750
design 749
dro@@ 749
avete 749
other@@ 748
acca@@ 747
rag@@ 746
dent@@ 745
ito 745
viol@@ 744
le, 742
", 742
said 740
molte 740
ste@@ 739
design@@ 738
3 738
stati 737
pas@@ 736
già 736
forse 736
vic@@ 735
volte 735
ity. 734
ce@@ 734
whole 734
cominci@@ 734
ach 732
before 732
long 731
pp@@ 731
posto 731
ct@@ 730
working 729
no. 729
oni 728
over@@ 727
dice 727
plo@@ 726
present@@ 726
dai 726
ì, 726
net@@ 725
th. 722
chio 721
costru@@ 721
invest@@ 720
inst@@ 720
ry 720
pun@@ 720
nuovo 720
chang@@ 719
understand 719
connec@@ 718
shi@@ 718
way, 717
ke@@ 717
high@@ 716
qualcuno 716
program@@ 714
create 714
mess@@ 714
detto 714
allo 714
boo@@ 713
ty@@ 712
ace 712
some@@ 712
arsi 711
cell@@ 710
prendere 710
pe 709
ers, 709
us, 709
thought 708
2 708
societ@@ 708
sei 708
million 707
glob@@ 707
lav@@ 707
cli@@ 706
lead@@ 705
mb@@ 705
micro@@ 704
fre@@ 704
pensare 703
what's 702
four 701
human@@ 701
real 701
app@@ 701
tanto 701
veramente 701
feel 700
controll@@ 700
che@@ 699
ate. 699
Li@@ 698
credo 698
anni. 698
imag@@ 697
super@@ 697
enz@@ 697
educ@@ 696
took 696
agli@@ 696
Ora, 696
Ar@@ 695
fat@@ 695
become 694
parlare 694
azione, 694
live 693
essi 693
grandi 692
out@@ 691
fa@@ 691
alc@@ 691
amb@@ 690
ute 690
100 689
guard@@ 689
land@@ 688
attraverso 688
hel@@ 687
plac@@ 687
time. 687
place 686
sper@@ 685
fu 685
ful 684
ally, 684
lun@@ 684
conosc@@ 684
ore. 683
Ora 683
coming 682
fact, 682
incredi@@ 681
'd 680
na 680
lat@@ 680
indi@@ 679
an, 678
bor@@ 678
cir@@ 678
natur@@ 678
cri@@ 677
brain 677
ano, 677
tutta 677
Av@@ 676
Lo 676
momento 676
ps 675
bro@@ 675
ente, 675
sce 675
capit@@ 674
m, 674
signific@@ 673
in. 673
azz@@ 673
enze 673
dare 672
help 671
ds, 670
nam@@ 670
ti. 670
"S@@ 669
story 668
sign@@ 668
eff@@ 668
amo, 668
believe 667
ue 667
ig@@ 666
quite 666
bri@@ 666
love 666
abb@@ 666
social 666
donne 666
ità, 666
ous@@ 665
thing. 665
nor@@ 665
vari@@ 665
My 664
et. 664
necess@@ 664
med@@ 664
et, 661
water 661
uni@@ 661
ola 661
you, 659
happen@@ 659
bili 659
oggi 658
ere@@ 657
pt@@ 657
gio@@ 657
avuto 656
forma 656
ss 654
making 654
th, 653
ity, 653
done 653
All@@ 652
ante, 652
atori 652
cro@@ 651
segn@@ 651
id@@ 650
there. 650
via 649
Grazie. 649
tec@@ 648
dir@@ 648
simi@@ 647
sioni 647
ati. 647
grado 647
ities 646
ast 646
si, 646
y? 644
li, 644
way. 643
sub@@ 643
% 643
enzi@@ 643
mente 643
There's 642
ata. 642
mo, 642
means 641
moment@@ 641
te. 641
din@@ 640
aver@@ 639
here, 639
n, 639
fam@@ 638
migli@@ 638
consider@@ 637
importante 637
dato 637
seri@@ 636
ere. 636
liber@@ 636
pressi@@ 635
govern@@ 635
alcune 635
colo 635
getting 634
ma, 634
gia 634
unque 634
stessa 634
women 633
him 633
qui@@ 633
These 632
ral 632
maybe 632
sy@@ 630
here. 630
altra 630
etti@@ 629
Quindi, 629
oni@@ 628
sarà 628
sta@@ 627
eng@@ 627
Gu@@ 627
build 626
ga 626
quale 626
too 624
without 624
One 623
agli 623
mett@@ 623
pover@@ 622
aspett@@ 622
Io 622
sent@@ 621
wee@@ 619
ics 618
every@@ 617
point 617
pat@@ 616
mani@@ 614
10@@ 614
fel@@ 614
trovare 614
quasi 614
duc@@ 613
ture 612
bile. 612
medic@@ 612
them, 612
ons 610
Euro@@ 610
avi@@ 609
en, 609
co 609
aw@@ 608
dut@@ 608
esso 608
minut@@ 607
tar@@ 607
sk@@ 607
stru@@ 607
course, 606
Indi@@ 605
year 605
colleg@@ 605
penso 605
secon@@ 604
mo. 604
♪ 604
pt 603
I'd 603
od@@ 603
Par@@ 603
ard 602
light 601
perf@@ 601
problem 601
um 601
sure 601
n. 599
abbastanza 599
scri@@ 598
6 598
jo@@ 597
list@@ 597
tw@@ 597
m. 597
aria 597
world, 597
let 597
dev@@ 597
enza. 597
power 596
7 596
ei 596
siano 596
usare 596
dalle 596
lo, 595
ro. 595
tecnologia 595
specie 594
I'll 593
tion@@ 593
e." 592
menti 592
lui 592
Is@@ 591
TED@@ 591
told 591
fanno 590
caus@@ 589
Gi@@ 589
number 588
win@@ 588
school@@ 588
talking 586
mark@@ 585
pati@@ 585
avamo 585
amp@@ 583
sui 583
avevo 583
ved 582
org@@ 582
Nel 582
res 581
gam@@ 581
ina, 581
vengono 581
sue 579
probably 579
ack@@ 579
system@@ 578
pretty 578
dollar@@ 577
inten@@ 577
ati, 577
acqua 577
ì 577
mill@@ 576
quattro 576
best 575
ju@@ 574
maggior 574
problemi 574
suoi 574
ask 573
ave 573
video 573
We're 572
invent@@ 572
sin@@ 572
Era 572
kill@@ 571
form 571
ger@@ 571
scor@@ 571
technology 570
like, 570
out. 570
Si@@ 570
stand@@ 569
econom@@ 569
piac@@ 569
environ@@ 568
out, 568
makes 568
cresc@@ 568
città 568
five 567
small 567
care 567
enza, 567
Be@@ 566
az@@ 566
now, 565
day, 565
"O@@ 565
,@@ 565
propri@@ 565
insieme 565
scienti@@ 564
00@@ 564
amenti 564
tratt@@ 564
ill 562
sm@@ 561
ologi@@ 561
bb@@ 561
across 560
ich@@ 560
15 560
contro 560
effec@@ 559
inv@@ 558
Com@@ 557
cervello 557
numero 557
low 556
prof@@ 555
ers. 555
C'è 555
ga@@ 554
s? 554
them@@ 554
Mo@@ 554
ana 554
missi@@ 554
he's 554
vist@@ 554
ione 554
gran@@ 553
sulle 553
thre@@ 552
self 552
chied@@ 552
succ@@ 551
ght 551
point@@ 551
Ne@@ 551
settiman@@ 551
scar@@ 550
preci@@ 550
agi@@ 550
casa 550
giov@@ 550
line 549
svilupp@@ 548
thinking 547
ura 547
giorn@@ 547
ence, 546
everything 546
sing@@ 546
o-@@ 546
As 546
nas@@ 546
condivi@@ 546
raccont@@ 545
univer@@ 544
emente 544
you've 543
clo@@ 542
fortun@@ 542
son 542
squ@@ 542
cc@@ 542
riusci@@ 542
tim@@ 541
clas@@ 541
emo@@ 541
sull'@@ 541
tiamo 541
significa 541
regi@@ 540
Ro@@ 540
secondo 540
kids 539
rec@@ 539
atore 539
olog@@ 538
capi@@ 538
amo. 538
plic@@ 537
osserv@@ 536
together 535
ma. 535
erò 535
grow@@ 534
years, 534
des@@ 534
senti@@ 534
people, 533
prote@@ 533
ure 533
po 533
ettiv@@ 533
face 532
shar@@ 532
quelli 532
set 531
ence. 531
pul@@ 531
Che 531
ello 530
scel@@ 530
ement 529
st, 529
fantast@@ 529
Why 529
spieg@@ 529
arvi 529
allora 529
po, 528
organizz@@ 528
Quello 528
ash@@ 527
mach@@ 527
las@@ 527
tratta 527
Gli 527
zed 526
deve 526
ure@@ 525
media 525
non@@ 525
esper@@ 525
eri 525
mettere 525
Nor@@ 524
him@@ 524
iniziato 524
pon@@ 523
ak 523
dr@@ 523
facendo 522
For 521
vostro 521
Cosa 521
question 520
Le@@ 520
Un@@ 520
vis@@ 520
progett@@ 520
prossi@@ 520
Go@@ 519
gar@@ 519
mondo, 519
atto 518
quali 518
wo@@ 517
get@@ 517
such 517
persona 517
certo 517
erà 517
alist@@ 516
ago, 516
viamo 516
ici, 516
vostra 516
well 515
Vi 515
issi@@ 514
li. 514
comport@@ 514
pazi@@ 514
amente. 514
learn 513
ly. 513
all, 513
realizz@@ 513
teach@@ 512
move 512
ina. 511
sost@@ 511
posso 510
She 509
bilit@@ 509
zzo 509
system 508
carb@@ 508
lingu@@ 508
po. 508
strut@@ 508
evamo 508
Bi@@ 507
an. 507
Stati 506
sembr@@ 506
Voglio 506
senso 506
spec@@ 505
arci 505
ricerca 505
tele@@ 504
sel@@ 504
50@@ 504
away 502
ick@@ 502
progetto 502
rappresent@@ 502
ins 501
Z@@ 501
having 501
miglior@@ 501
semplic@@ 501
second 499
e's 499
put@@ 499
ogg@@ 499
vero 499
dello 499
.000 499
ition 498
popul@@ 498
40 498
there, 498
ost@@ 498
hy@@ 498
esi@@ 498
digit@@ 498
energia 498
prat@@ 498
our@@ 497
writ@@ 497
children 497
saw 496
CA: 496
fur@@ 496
sotto 496
Beh, 496
gono 496
ester@@ 495
accor@@ 495
ora, 495
ggi@@ 495
ei@@ 494
ship 494
e' 494
vita. 494
cento 494
domanda 494
gioc@@ 494
Re@@ 493
og@@ 493
influ@@ 493
illu@@ 493
ack 493
veni@@ 493
seen 492
aver 492
fa, 492
invece 492
esempio 492
ick 491
stu@@ 491
raggiun@@ 491
global 490
ella 489
und@@ 488
ero@@ 488
cin@@ 488
dav@@ 488
up, 486
descri@@ 486
ve, 486
g, 486
hav@@ 486
person 486
les@@ 486
industri@@ 486
di, 486
whether 485
let's 485
ament@@ 485
bene 485
ong 484
wal@@ 484
diff@@ 484
vedete 484
metter@@ 484
en't 483
hard 483
dri@@ 483
almost 483
Fran@@ 483
sett@@ 483
icamente 483
esempio, 483
aper@@ 482
corso 482
costruire 482
know@@ 481
en. 481
under@@ 481
luc@@ 481
moder@@ 481
sch@@ 481
ede 481
ning 479
qual@@ 479
remo 479
visi@@ 478
looks 478
mp@@ 478
utilizz@@ 478
id 477
looked 477
nello 477
reste 477
robo@@ 476
tru@@ 476
head@@ 476
oro 476
facciamo 476
ets 475
left 475
ata, 475
uso 475
you@@ 474
ish 474
riv@@ 474
ù 474
oria 474
Ter@@ 474
durante 474
ents 473
pal@@ 473
fatt@@ 473
uti 473
possibile 473
messo 473
ve. 472
information 472
play 472
Sap@@ 472
sero 472
single 471
expe@@ 471
piuttosto 471
building 470
ates 470
pensi@@ 470
livello 470
my@@ 469
corr@@ 469
or, 469
pla@@ 469
osc@@ 469
cambiare 469
top 468
young 468
dru@@ 468
scal@@ 468
civi@@ 468
avevano 468
ioni 468
paes@@ 468
ional 467
ation@@ 467
asked 467
Africa 467
tta 467
dur@@ 467
esi 467
ché 467
gruppo 467
All 466
forest@@ 466
gest@@ 466
que 465
life. 464
keep 464
half 464
arono 464
bod@@ 463
sense 463
turn 462
opportun@@ 462
up. 462
ecco 462
troppo 462
letter@@ 461
compet@@ 461
great@@ 461
di. 461
nazion@@ 461
thing, 460
p. 460
ultimi 460
vill@@ 459
ors 459
enough 459
cia 459
uomo 459
giust@@ 459
dra@@ 457
famili@@ 457
ricer@@ 457
rap@@ 456
goes 456
ovvi@@ 455
ghi 455
siete 455
living 454
atu@@ 454
ine, 454
batter@@ 454
è@@ 454
sfi@@ 454
Grazie 454
durre 454
meglio 454
abbia 454
sequ@@ 453
'll 453
ms 453
So@@ 453
elle 453
pure 453
quei 453
doman@@ 453
questo, 453
United 452
tan@@ 452
bir@@ 452
They're 452
parti@@ 452
etta 452
ici. 452
piccolo 452
capacità 452
ments 451
imp@@ 451
money 451
mini@@ 451
within 450
cen@@ 450
spesso 450
ard@@ 449
stri@@ 449
americ@@ 449
'è 449
ter 448
science 448
pend@@ 448
emo 448
8 447
equi@@ 447
ricor@@ 447
gets 446
ness 446
Vi@@ 446
mov@@ 446
oso 446
of@@ 445
ves 445
tion. 445
ones 445
gere 445
scoperto 445
sembra 445
progre@@ 444
arri@@ 444
é@@ 444
situ@@ 443
9 443
bal@@ 443
school 443
anzi@@ 443
lungo 443
bambin@@ 443
inclu@@ 442
ah@@ 442
fact 442
Internet 442
schi@@ 442
sid@@ 441
ef@@ 441
while 441
economi@@ 441
side 441
lit@@ 441
tions 440
mean@@ 440
experi@@ 440
today 439
already 439
projec@@ 439
ability 439
again, 439
nes@@ 439
mes@@ 439
appar@@ 439
Ha 439
both 438
impar@@ 438
elli 438
dire, 438
difficile 438
elec@@ 437
high 437
percent@@ 437
uro 437
cinque 437
età 437
ature 436
mu@@ 436
evolu@@ 436
No, 436
ific@@ 436
energy 435
ic, 435
radi@@ 435
real@@ 435
collabor@@ 435
ori, 435
portare 435
priv@@ 434
questo. 434
poter 434
ect 433
thin@@ 433
comb@@ 433
roc@@ 433
movi@@ 433
people. 432
interesting 432
risol@@ 432
anti. 432
riguar@@ 432
nuova 432
ational 431
zia 431
oltre 431
wit@@ 430
ri 430
tare 430
lì 430
sappiamo 430
spazio 430
"I 429
larg@@ 429
men 428
recor@@ 428
age, 428
Questi 428
macch@@ 428
possa 428
technolog@@ 427
graph@@ 427
bring 426
biolog@@ 426
test 426
ght, 425
and, 425
struc@@ 425
times 425
chiar@@ 425
public 424
lei 424
appena 424
paesi 424
ically 423
informa@@ 423
sing 422
happened 422
cul@@ 422
stori@@ 422
base 421
heard 421
reason 421
often 421
contr@@ 421
picco@@ 421
Poi 421
scen@@ 420
mean, 420
respon@@ 420
inci@@ 420
od. 420
sar@@ 420
ucci@@ 420
cultu@@ 419
cr@@ 419
robot 419
ic. 419
preso 419
gno 419
sapere 419
caso 419
commun@@ 418
lam@@ 418
Po@@ 418
agn@@ 418
biso@@ 418
semplicemente 418
land 417
ways 417
ment, 417
p, 417
consu@@ 417
terri@@ 417
compas@@ 417
Pri@@ 417
da. 417
sli@@ 416
1 416
des 416
under 416
ane 416
hom@@ 415
ent. 415
g. 415
wasn't 415
ord@@ 415
ato@@ 415
coun@@ 414
crit@@ 414
case 414
solu@@ 414
blo@@ 414
sso 414
luce 414
rispon@@ 414
ol 413
Lo@@ 413
servi@@ 413
probabilmente 413
Sh@@ 412
important@@ 412
ght. 412
tou@@ 412
Siamo 412
ricev@@ 412
conto 412
dirit@@ 412
Gre@@ 411
fir@@ 411
space 411
business 411
y's 411
applic@@ 411
da, 411
veloc@@ 411
esso. 411
couple 410
new@@ 410
room@@ 410
ice. 410
inform@@ 410
someone 410
urb@@ 410
affron@@ 410
ben@@ 409
glio 409
ri. 409
imento 409
spac@@ 408
den 408
stud@@ 408
dol@@ 408
qui, 408
comunità 408
colle@@ 407
much. 407
mam@@ 407
genet@@ 407
inside 407
cio 407
chiamo 407
simple 406
well, 406
diverse 406
O 405
s: 405
intellig@@ 405
years. 405
recent@@ 405
60 404
fem@@ 404
ir 404
your@@ 404
fal@@ 404
foto 404
meravigli@@ 404
enti. 404
ys 403
book 403
six 403
Au@@ 403
serve 403
vec@@ 403
figli@@ 403
società 403
niente 403
appro@@ 402
ory 402
excit@@ 402
port 402
cle@@ 402
behavi@@ 402
ine. 402
reas@@ 402
tto 402
vere 402
vista 402
uomini 402
ricon@@ 402
food 401
row@@ 401
cercare 401
completamente 401
essu@@ 401
rà 401
selv@@ 400
ys, 400
Car@@ 400
view@@ 400
ter, 400
ries@@ 400
preoccu@@ 400
risposta 400
pubblic@@ 400
S 399
led 399
room 399
tin@@ 399
bly 399
bio@@ 399
things. 399
sist@@ 399
chiamato 399
piace 399
nessuno 399
zio 399
ner 398
poll@@ 398
divi@@ 398
ento 398
successo 398
avrebbe 398
kin@@ 397
asi@@ 397
nothing 397
dollari 397
mist@@ 396
bur@@ 396
ds. 396
impe@@ 396
suff@@ 396
piece 396
mapp@@ 396
dest@@ 396
è, 396
vediamo 396
hu@@ 395
improv@@ 395
anything 395
peri@@ 395
000 395
nuov@@ 395
bad 394
cop@@ 394
this@@ 394
ath@@ 394
disc@@ 394
diventare 394
persone, 394
mangi@@ 394
elettr@@ 394
country 393
work. 393
Pi@@ 393
Di 393
dono 393
must 392
read@@ 392
countr@@ 392
mie 392
anti, 392
pur@@ 391
home 391
mostra 391
For@@ 390
example, 390
gir@@ 390
tas@@ 390
diversi 390
qualcos@@ 390
vivere 390
against 389
facci@@ 389
quest'@@ 389
prend@@ 389
ment. 388
all. 388
ate@@ 388
limit@@ 388
ta. 388
mano 388
miliardi 388
un'altra 388
effici@@ 387
happens 387
ut 387
order 387
allow@@ 387
billion 387
err@@ 387
long@@ 386
democ@@ 386
built 386
open 386
ri, 386
devo 386
until 385
basically 385
ami@@ 385
lla 385
magn@@ 384
indic@@ 384
ess. 384
objec@@ 384
hol@@ 384
tot@@ 384
potere 384
age. 383
open@@ 383
enor@@ 383
bigg@@ 383
dete 383
cercando 383
condi@@ 383
sosten@@ 383
ch, 382
origin@@ 382
— 382
remmo 382
ori. 381
scrit@@ 381
posti 381
armi 381
once 380
Man@@ 380
ame 380
uta 380
abilità 380
reli@@ 379
You@@ 379
En@@ 379
as, 379
area 379
tion, 379
Mol@@ 379
norm@@ 378
assi@@ 378
hor@@ 377
completely 377
national 377
termin@@ 377
Pot@@ 377
nuove 377
otti@@ 377
creato 377
enti, 377
12 376
fic 376
mean 376
knew 376
ito, 376
paio 376
anal@@ 375
taking 375
ghts 375
hear@@ 375
right? 375
kinds 375
Cer@@ 375
scienzi@@ 375
fotogra@@ 375
succed@@ 375
incontr@@ 375
bet@@ 374
hear 374
fiel@@ 374
neuro@@ 374
azion@@ 374
detto, 374
ter. 373
ering 373
clu@@ 373
future 373
princi@@ 373
Im@@ 373
chie@@ 373
dott@@ 373
torn@@ 373
quell'@@ 373
team 372
countries 372
let@@ 372
work, 372
200 372
cono 372
lavorare 372
Possiamo 372
is. 371
learned 371
protec@@ 371
199@@ 371
migliore 371
corpo 371
noi. 371
qualsiasi 371
vuo@@ 371
ice, 370
pet@@ 370
shor@@ 370
word 370
occu@@ 370
stava 370
front 369
We@@ 369
exist@@ 369
equ@@ 369
car 369
ft 369
Let's 369
gal@@ 369
vuole 369
though 368
Mon@@ 368
stim@@ 368
ident@@ 368
bile, 368
almente, 368
itori 368
feri@@ 368
mezzo 368
ascolt@@ 368
isn't 367
now. 367
conce@@ 367
ward 367
lif@@ 367
che. 367
aggi 367
conosci@@ 367
ragazzi 367
possible 366
discus@@ 366
lar@@ 366
read 366
olo@@ 366
cervell@@ 366
idee 366
think, 365
American 365
princip@@ 365
informazioni 365
cerc@@ 365
ton@@ 364
ously 364
visu@@ 364
ot 364
India 364
ascin@@ 364
eno@@ 364
sil@@ 364
jour@@ 364
pianet@@ 364
c'era 364
migliaia 364
confer@@ 363
able. 363
ow 363
decided 363
want@@ 363
trovato 363
farlo 363
ago 362
De@@ 362
D 362
America 362
zi 362
ined 361
à@@ 361
conc@@ 361
hai 361
ò, 361
sentito 361
immagine 361
cy@@ 360
auto@@ 360
uro@@ 360
unque, 360
esperienza 360
sec@@ 359
ep 359
couldn't 359
mili@@ 359
causa 359
tura 359
neur@@ 358
ty 358
vide@@ 358
y: 358
organiz@@ 358
turns 358
lan@@ 358
fro@@ 358
18@@ 358
sbagli@@ 358
porta 358
ricord@@ 358
family 357
V 357
prepar@@ 357
ath 357
dimension@@ 357
pien@@ 357
ito. 357
fondament@@ 357
storie 357
y-@@ 356
here's 356
ever@@ 356
see, 356
tecnologi@@ 356
No@@ 355
pictu@@ 355
coli 355
imagine 354
back@@ 354
discover@@ 354
ordin@@ 354
health 354
became 354
abit@@ 354
radic@@ 354
grup@@ 354
Se@@ 353
dollars 353
ette 353
since 353
fr@@ 353
tà 353
group 352
pron@@ 352
Ge@@ 352
salv@@ 352
abbi@@ 352
posi@@ 352
oli 352
modello 352
comunic@@ 352
cra@@ 351
meas@@ 351
life, 351
sto@@ 351
ank 350
epi@@ 350
cellul@@ 350
numer@@ 350
Ciò 350
futuro 350
resul@@ 349
engine@@ 349
trav@@ 349
He@@ 349
Americ@@ 349
divers@@ 349
qui. 349
effetti 349
popol@@ 349
scuola 349
adul@@ 348
ess, 348
conf@@ 348
ando@@ 348
modell@@ 348
hope 347
G: 347
spre@@ 347
sive 347
succede 347
Queste 347
arlo 347
cominciato 347
entu@@ 346
intro@@ 346
Bo@@ 346
determin@@ 346
friend@@ 346
bbi@@ 346
vicin@@ 346
gliere 346
Qui 346
share 345
spo@@ 345
exactly 345
donna 345
cose. 345
dovuto 345
zioni. 345
remember 344
sens@@ 344
aro@@ 344
ad, 344
contro@@ 344
forza 344
scopri@@ 344
tuo 344
nome 344
solut@@ 343
city 343
tran@@ 343
forc@@ 343
tit@@ 343
anno. 343
qualunque 343
answer 342
thousands 342
film 342
psi@@ 342
istru@@ 342
esso, 342
gna 342
loo@@ 341
number@@ 341
diseas@@ 341
grazie 341
cambiamento 341
surpri@@ 340
relation@@ 340
collec@@ 340
perce@@ 340
chem@@ 340
York 340
you'll 340
electr@@ 340
poco 340
vi, 340
sed 339
stop 339
shap@@ 339
class@@ 339
Oka@@ 339
lor@@ 339
spar@@ 339
pia 339
famigli@@ 339
vogliamo 339
soff@@ 339
straordin@@ 339
control 338
or. 338
ent, 338
Ste@@ 338
question@@ 338
0, 338
spen@@ 338
ando. 338
semplice 338
portato 338
univers@@ 337
fe 337
ies 337
job@@ 337
figure 337
plast@@ 337
terz@@ 337
day. 336
compar@@ 336
driv@@ 336
nar@@ 336
facil@@ 336
a." 336
fond@@ 336
tutto, 336
Ho@@ 335
created 335
invol@@ 335
HI@@ 335
girl@@ 335
vita, 335
seconda 335
model@@ 334
plant@@ 334
audi@@ 334
nucle@@ 334
forma@@ 334
discor@@ 334
cellule 334
maggi@@ 334
care@@ 333
air 333
itut@@ 333
batt@@ 333
fort@@ 333
conclu@@ 333
mi, 333
sometimes 332
Amer@@ 332
conver@@ 332
patter@@ 332
lim@@ 332
evid@@ 332
noti@@ 332
serie 332
l'idea 332
ì. 332
od, 331
ber 331
25 331
pir@@ 331
vi. 331
stra 331
stron@@ 330
head 330
run 330
We've 330
docu@@ 330
complic@@ 330
quad@@ 330
fatti 330
Credo 330
course 329
centur@@ 329
To@@ 329
Bra@@ 329
tic@@ 329
Har@@ 329
Ve@@ 329
tempo, 329
piccola 329
desider@@ 329
fast@@ 328
exampl@@ 328
cou@@ 328
"D@@ 328
liter@@ 328
usa 328
muov@@ 328
somebody 327
ith 327
works 327
st. 327
stati@@ 327
natu@@ 327
pa 327
forz@@ 327
cammin@@ 327
interest@@ 326
amazing 326
scu@@ 326
inspi@@ 326
vir@@ 326
uo@@ 326
aument@@ 326
gior@@ 326
noi, 326
possibilità 326
early 325
Pre@@ 325
complet@@ 325
ual 325
milit@@ 325
DNA 325
aggiun@@ 325
compr@@ 325
Hanno 325
giro 325
disa@@ 324
mental 324
identi@@ 324
lling 324
clin@@ 324
uff@@ 324
anno, 324
ble. 323
ely, 323
ching 323
Mi@@ 323
see@@ 323
nut@@ 323
libr@@ 323
persone. 323
macchina 323
processo 323
issu@@ 322
ts. 322
mul@@ 322
posizione 322
nuovi 322
paese 322
Al 321
process 321
multi@@ 321
natural 321
experience 321
ped 321
ka@@ 321
cav@@ 321
tipi 321
chiama 321
rather 320
stuff 320
Ira@@ 320
und, 320
entire 320
mind 320
argu@@ 320
dia 320
tu 320
alz@@ 320
Bene, 320
risor@@ 320
vorrei 320
eli@@ 319
neg@@ 319
abilit@@ 319
ca, 319
guid@@ 319
X@@ 319
vor@@ 319
velo@@ 319
iment@@ 319
based 318
fail@@ 318
today, 318
At 318
razione 318
scienza 318
Potete 318
vano 318
shows 317
stories 317
moment 317
huge 317
maj@@ 317
ell 317
web@@ 317
fici 317
citt@@ 317
vision@@ 316
scre@@ 316
fully 316
says, 316
evit@@ 316
del@@ 316
fis@@ 316
etti, 316
usci@@ 316
struttura 316
rispetto 316
adesso 316
zzi 316
matter 315
takes 315
ideas 315
ster@@ 315
inde@@ 315
lives 315
creati@@ 315
Afric@@ 315
rin@@ 315
osa 315
produ@@ 315
ete, 315
Unit@@ 315
evi 315
attiv@@ 315
l'inter@@ 315
picture 314
year, 314
som@@ 314
answ@@ 314
as. 314
ca. 314
strada 314
bene. 314
responsa@@ 314
studenti 314
basi@@ 313
bility 313
ply 313
ences 313
art 313
gave 313
then, 313
predic@@ 313
vant@@ 313
ener@@ 313
passion@@ 313
buona 313
ismo 313
muo@@ 313
Penso 313
puoi 313
stop@@ 312
turned 312
und. 312
organis@@ 312
ona 312
scientist@@ 311
lots 311
befor@@ 311
but@@ 311
communic@@ 311
leave 311
potrebbero 311
happen 310
Ear@@ 310
parol@@ 310
mare 310
Anche 310
atura 310
porto 310
finanzi@@ 310
stessi 310
ts, 309
capac@@ 309
resist@@ 309
prog@@ 309
chiesto 309
bab@@ 308
temper@@ 308
large 308
well. 308
voc@@ 308
children@@ 308
vin@@ 308
conten@@ 308
modi 308
80 307
play@@ 307
ks, 307
moving 307
isol@@ 307
self-@@ 307
law@@ 307
"The 307
Yor@@ 307
bene@@ 307
infin@@ 307
Cos@@ 307
fav@@ 307
giorni 307
sicure@@ 307
campo 307
build@@ 306
lau@@ 306
ens 306
500 306
comple@@ 306
ail@@ 306
guer@@ 306
eggi@@ 306
primi 306
sti 306
dentro 306
elo 305
z 305
worked 305
otten@@ 305
sistem@@ 305
zioni, 305
!" 304
sum@@ 304
problems 304
everybody 304
ax@@ 304
go. 304
concentr@@ 304
donn@@ 304
gran 304
malatti@@ 304
perchè 304
prender@@ 304
sho@@ 303
terrori@@ 303
futu@@ 303
ily 303
bit@@ 303
sud@@ 303
taken 303
sex@@ 303
invit@@ 303
tent@@ 303
gent@@ 303
erebbe 303
imparare 303
spazi@@ 303
soprav@@ 303
riman@@ 303
decision@@ 302
Jo@@ 302
prove 302
smar@@ 302
pract@@ 302
profession@@ 302
A, 302
oun@@ 302
é, 302
rispost@@ 302
libro 302
ations, 301
ste 301
government 301
name 301
geno@@ 301
ond@@ 301
fare. 301
scoper@@ 301
così. 301
sts 300
self. 300
crimin@@ 300
Secon@@ 300
cannot 300
commerci@@ 300
gs 300
expl@@ 300
research 300
particular 300
ling 300
ele@@ 300
stamp@@ 300
col 300
difficil@@ 300
inizio 300
arly 299
anci@@ 299
ched 299
busin@@ 299
ct 299
Internet@@ 299
local 299
Cor@@ 299
stare 299
bbe 299
shed 298
do? 298
least 298
thou@@ 298
M: 298
view 298
embr@@ 298
beautiful 298
colt@@ 298
pubblico 298
imparato 298
intorno 298
devono 298
dagli 298
Wi@@ 297
teri@@ 297
als, 297
bilità 297
sotto@@ 297
Dobbiamo 297
interessante 297
immagini 297
l'un@@ 297
mass@@ 296
call@@ 296
ys. 296
challeng@@ 296
emot@@ 296
consi@@ 296
Dov@@ 296
crescita 296
pio 296
tempo. 296
deva 296
scuol@@ 296
gh, 295
ention 295
else 295
rei 295
Con 295
guardare 295
histor@@ 294
what@@ 294
valu@@ 294
separ@@ 294
laboratori@@ 294
Pu@@ 294
mi. 294
level@@ 293
during 293
Tutti 293
woman 292
ks. 292
ance, 292
ations. 292
ange 292
produce 292
fini@@ 292
phone 292
Bu@@ 292
se: 292
Da 292
ottenere 292
motivo 292
lavoro. 292
Just 291
convin@@ 291
study 291
centro 291
altro. 291
ingegn@@ 291
pensato 291
iscono 291
bene, 291
days 290
show@@ 290
provi@@ 290
grav@@ 290
outh 290
Ju@@ 290
we'll 290
project 290
dor@@ 290
lett@@ 290
superfici@@ 290
ci. 290
esattamente 290
quar@@ 289
certain 289
ally. 289
motiv@@ 289
archit@@ 289
ico. 289
diment@@ 289
alto 289
gni 289
potuto 289
immedi@@ 288
eas@@ 288
able, 288
consci@@ 288
Ye@@ 288
atic 288
giorno, 288
sapete, 288
umani 288
luogo 288
tech@@ 287
knowled@@ 287
guy 287
lab@@ 287
san@@ 287
ine@@ 287
potremmo 287
sistemi 287
famiglia 287
known 286
Here's 286
given 286
lev@@ 286
Lu@@ 286
dovremmo 286
poter@@ 286
avanti 286
impi@@ 286
eter@@ 285
obvi@@ 285
visit@@ 285
Or 285
mal 285
Don@@ 285
confron@@ 285
vacc@@ 285
sce@@ 285
ragion@@ 285
Tutto 285
usando 285
futuro@@ 285
este 285
propria 285
ices 284
manag@@ 284
experiment@@ 284
instead 284
dise@@ 284
behind 284
deca@@ 284
dy@@ 284
combin@@ 284
hon@@ 284
ece 284
"A@@ 284
asse 284
ay 283
foll@@ 283
happ@@ 283
ered 283
dovrebbe 283
Noi 283
trasform@@ 283
cio@@ 283
ativo 283
periodo 283
all'interno 283
example 282
saying 282
tradi@@ 282
metà 282
gioco 282
months 281
lik@@ 281
along 281
tors 281
places 281
essa 281
parole 281
Allora 281
scritto 281
bambino 281
profon@@ 281
pressione 281
physic@@ 280
says 280
successi@@ 280
today. 280
dio 280
render@@ 280
things, 279
community 279
doc@@ 279
spend 279
exper@@ 279
fish@@ 279
posed 279
comm@@ 279
Chri@@ 279
Then 279
5, 279
ad. 279
prim@@ 279
associ@@ 279
anto 279
asci@@ 279
anza, 279
piccoli 279
natura 279
follow@@ 278
sh 278
clear@@ 278
gri@@ 278
seeing 278
curi@@ 278
ni 278
saranno 278
alità 278
ultimo 278
concer@@ 277
Do@@ 277
quick@@ 277
dop@@ 277
fru@@ 277
key 277
felt 277
d-@@ 277
compon@@ 277
und 277
ll 277
ari, 277
i? 277
ono, 277
esa 277
ando, 277
parola 277
realized 276
conv@@ 276
ential 276
Mus@@ 276
amin@@ 276
ove 276
matt@@ 276
sviluppo 276
ping 275
structu@@ 275
ters 275
tool@@ 275
You're 275
student@@ 275
was, 275
11 275
anza. 275
curr@@ 274
als. 274
C 274
ah, 274
aci@@ 274
seven 274
ton 274
with@@ 274
heart 274
ay@@ 274
virtu@@ 274
sul@@ 274
dirett@@ 274
governo 274
esplor@@ 274
later, 273
gh 273
aliz@@ 273
sound 273
right, 273
18 273
gl@@ 273
began 273
studio 273
Tut@@ 273
rebbe 273
visione 273
cittad@@ 273
absolut@@ 272
ft@@ 272
People 272
ey 272
r. 272
grand@@ 272
conserv@@ 272
amento. 272
third 271
very, 271
s." 271
mos@@ 271
zone 271
madre 271
full 270
hand 270
develop@@ 270
dom 270
erci@@ 270
lear@@ 270
regol@@ 270
Alcun@@ 270
domande 270
iche 270
peopl@@ 269
close 269
women@@ 269
acti@@ 269
sun@@ 269
Well 269
rar@@ 269
ammo 269
frequ@@ 269
poli@@ 269
metri 269
essero 269
at. 268
at, 268
research@@ 268
chan@@ 268
believ@@ 268
foc@@ 268
feel@@ 268
anta 268
sco 268
rifl@@ 268
Perch@@ 268
vogliono 268
hours 267
needs 267
langu@@ 267
ossi@@ 267
itive 267
Our 267
Some 267
flu@@ 267
0 267
o." 267
dimen@@ 267
ambiente 267
questione 267
lanci@@ 267
là 267
rebbero 267
cells 266
favor@@ 266
duce 266
tried 266
king, 266
powerful 266
self, 266
e" 266
sugg@@ 266
merc@@ 266
arrivare 266
Ogni 266
Pens@@ 266
mesi 266
padre 266
model 265
assist@@ 265
common 265
house 265
fest@@ 265
Ni@@ 265
log@@ 265
ta, 265
argo@@ 265
l'in@@ 265
matemat@@ 265
cover@@ 264
perhaps 264
guys 264
osa@@ 264
Ver@@ 264
cibo 264
chi. 264
guerra 264
Forse 264
level 263
students 263
ther, 263
bomb@@ 263
world@@ 263
volu@@ 263
A. 263
right. 263
learning 263
incre@@ 263
they've 263
prob@@ 263
animali 263
eci 263
venire 263
tante 263
tanti 263
flo@@ 262
To 262
've 262
fli@@ 262
ust 262
insiem@@ 262
ranno 262
health@@ 261
cell 261
ribut@@ 261
ago. 261
parti 261
faccio 261
needed 260
trac@@ 260
yet 260
para@@ 260
imm@@ 260
brea@@ 260
0. 260
mother 260
almeno 260
quantità 260
dietro 260
avrei 260
dimostr@@ 260
mente. 260
soldi 260
rest 259
beg@@ 259
thing@@ 259
pad@@ 259
was@@ 259
Is 259
happening 259
sangu@@ 259
amount 259
ext@@ 259
pie@@ 259
scher@@ 259
pubbl@@ 259
passato 259
tenere 259
Earth 258
source 258
func@@ 258
Chris 258
year-@@ 258
photograph@@ 258
Not 258
omet@@ 258
201@@ 258
atric@@ 258
terra 258
l'ho 258
ragione 258
particolare 258
parla 258
pay 257
it? 257
increas@@ 257
sle@@ 257
ently 257
diagno@@ 257
auto 257
imenti 257
sacco 257
tua 257
telefon@@ 257
differenza 257
appear@@ 256
sever@@ 256
fra@@ 256
gives 256
mone@@ 256
deb@@ 256
unds 256
brought 256
stic@@ 256
integr@@ 256
sac@@ 256
asp@@ 256
viaggi@@ 256
fa. 256
anno@@ 255
OK@@ 255
true 255
black 255
Or@@ 255
cru@@ 255
ò@@ 255
usato 255
centinaia 255
cresci@@ 255
personal 254
stuff@@ 254
ye@@ 254
cle 254
tend@@ 254
rece@@ 254
Ben@@ 254
', 254
emi 254
Uniti 254
ram@@ 253
middle 253
everyone 253
agre@@ 253
they@@ 253
proto@@ 253
emer@@ 253
vity 253
100@@ 253
gin@@ 253
perch@@ 253
occhi@@ 253
particol@@ 253
grafic@@ 253
Ger@@ 252
Fi@@ 252
fol@@ 252
condit@@ 252
child 252
sav@@ 252
difficult 252
outside 252
longer 252
bracci@@ 252
Uno 252
deciso 252
jec@@ 251
wonder@@ 251
changed 251
software 251
nat@@ 251
coinvol@@ 251
osi 251
oggi, 251
economia 251
anze 251
ately 250
corre@@ 250
terms 250
spent 250
rul@@ 250
No 250
...@@ 250
esperi@@ 250
peggi@@ 250
esseri 250
music 249
ver, 249
What's 249
wonderful 249
ush@@ 249
job 249
myself 249
walk 249
attac@@ 249
ea 249
effic@@ 249
lont@@ 249
indietro 249
frut@@ 249
economic 248
grow 248
Here 248
simply 248
history 248
there@@ 248
liz@@ 248
posit@@ 248
idea. 248
thought, 248
compi@@ 248
chi, 248
popolazione 248
funziona 248
political 247
telling 247
species 247
act@@ 247
insi@@ 247
fron@@ 247
simul@@ 247
Google 247
spett@@ 247
occhi 247
parteci@@ 247
sentire 247
pho@@ 246
thes@@ 246
go, 246
ba 246
preced@@ 246
Do 246
year. 246
nego@@ 246
eremo 246
enorme 246
vostri 246
essimo 246
amici 246
actually, 245
ion 245
intelli@@ 245
prefer@@ 245
traff@@ 245
pit@@ 245
opportunità 245
nemmeno 245
pow@@ 244
element@@ 244
ns 244
Ph@@ 244
lost 244
mut@@ 244
Pa@@ 244
Africa, 244
ario. 244
esser@@ 244
lavoro, 244
rivolu@@ 244
guardate 244
ativa 244
rende 244
celebr@@ 243
botto@@ 243
tell@@ 243
pped 243
emerg@@ 243
carri@@ 243
chim@@ 243
eco@@ 243
Pen@@ 243
tti@@ 243
ari. 243
eranno 243
attività 243
ssimo 243
diventa 243
He's 242
technologi@@ 242
dd@@ 242
free 242
interested 242
more. 242
ont@@ 242
blu@@ 242
Vol@@ 242
Ness@@ 242
assolutamente 242
pensiamo 242
mic@@ 241
physical 241
understanding 241
petro@@ 241
father 241
Cre@@ 241
capito 241
cost 240
ce, 240
Every@@ 240
past 240
intu@@ 240
four@@ 240
domin@@ 240
molec@@ 240
partic@@ 240
mit@@ 240
interac@@ 240
pose 240
language 240
glie 240
mondi@@ 240
sopra 240
divert@@ 240
pubbli@@ 240
detto: 240
ages 239
quo@@ 239
countri@@ 239
scale 239
ining 239
bun@@ 239
met 239
espe@@ 239
row 239
ous. 239
video@@ 239
ribu@@ 239
asi 239
centr@@ 239
dett@@ 239
musica 239
dopo, 239
forme 239
migliori 239
ying, 238
non-@@ 238
On@@ 238
questions 238
piano 238
market@@ 238
int 238
suon@@ 238
cic@@ 238
farmac@@ 238
developed 237
ines 237
giving 237
ade@@ 237
other. 237
mot@@ 237
/@@ 237
ving 237
hold 237
red@@ 237
zza, 237
mercato 237
paura 237
rendere 237
disponi@@ 237
faccia 237
compren@@ 237
wrong 236
write 236
news 236
om 236
ake 236
growing 236
hop@@ 236
arch@@ 236
Mc@@ 236
Cent@@ 236
Vo@@ 236
auti@@ 236
stavo 236
sarebbero 236
chiest@@ 236
camp@@ 235
ver 235
rare 235
Can 235
SA 235
e; 235
together, 235
problem. 235
mak@@ 235
Ac@@ 235
ind@@ 235
tic 235
On 235
potenzi@@ 235
estrem@@ 235
loro. 235
sazione 235
rima@@ 235
raccol@@ 235
world's 234
U.S. 234
again 234
198@@ 234
Afghanist@@ 234
cancer@@ 234
ster 234
World 234
virus 234
starting 234
wron@@ 234
words 234
pac@@ 234
B: 234
nell@@ 234
azien@@ 234
Dopo 234
attenzione 234
ogn@@ 234
compag@@ 234
aiutare 234
camera 233
brill@@ 233
really, 233
represent@@ 233
easy 233
night 233
circu@@ 233
plor@@ 233
ezza 233
sino 233
arli 233
endere 233
volta, 233
trova 233
eria 232
easi@@ 232
ok 232
tex@@ 232
incredible 232
ance. 232
infra@@ 232
happy 232
buy 232
tow@@ 232
gram@@ 232
vest@@ 232
format@@ 232
At@@ 232
volevo 232
aliment@@ 232
arte 232
termini 232
poteva 232
movimento 232
mis@@ 231
agu@@ 231
dam@@ 231
tel@@ 231
bill@@ 231
babi@@ 231
universe 231
dg@@ 231
ee 231
Chin@@ 231
sat@@ 231
ani, 231
zza. 231
cose, 231
scono 231
passare 231
azioni. 231
realtà, 231
lavorato 231
imo 231
David 230
fundament@@ 230
fish 230
sitting 230
well@@ 230
seems 230
achi@@ 230
ben 230
bel 230
Africa. 230
endo@@ 230
atti 230
resto 230
alber@@ 230
sette 230
buon 230
megli@@ 230
running 229
develo@@ 229
ble, 229
extra@@ 229
cover 229
artifici@@ 229
hundreds 229
1, 229
be, 229
"M@@ 229
size 229
rur@@ 229
asc@@ 229
caratter@@ 229
passo 229
avevamo 229
bito 229
giorno. 229
fronte 229
risultato 229
friends 228
parts 228
ular 228
invisi@@ 228
know. 228
run@@ 228
ous, 228
organi@@ 228
ink 228
bast@@ 228
tav@@ 228
amento, 228
soluzione 228
vicino 228
c'erano 228
consegu@@ 228
emmo 228
aspetto 228
e". 228
together. 227
gone 227
nature 227
citiz@@ 227
animal 227
ught 227
ù@@ 227
pensate 227
tram@@ 227
ora. 227
attu@@ 227
più. 227
bilmente 227
stro 227
solve 226
avail@@ 226
ful, 226
gion@@ 226
Univers@@ 226
Engli@@ 226
quality 226
ario, 226
San 226
distribu@@ 226
assic@@ 226
tecnologie 226
vanno 226
linea 226
Vorrei 226
cancer 225
ch. 225
ck@@ 225
cause 225
deal 225
Char@@ 225
again. 225
ond 225
gradu@@ 225
perio@@ 225
ring@@ 225
eve 225
ants 225
ena 225
Pos@@ 225
prodotto 225
fisic@@ 225
dicono 225
cultura 225
company 224
ney 224
contin@@ 224
responsi@@ 224
succe@@ 224
dig@@ 224
lob@@ 224
a-@@ 224
Let 224
small@@ 224
gel@@ 224
bloc@@ 224
sw@@ 224
ourselves 224
Inter@@ 224
auth@@ 224
ana, 224
programma 224
atamente 224
ficare 224
sustain@@ 223
ignor@@ 223
Ber@@ 223
ID@@ 223
strate@@ 223
sim@@ 223
consum@@ 223
paint@@ 223
orn@@ 223
mont@@ 223
vede 223
sapete 223
meccan@@ 223
azioni, 223
"Non 223
cent 222
degre@@ 222
rapid@@ 222
treat@@ 222
oul@@ 222
feeling 222
structure 222
recogni@@ 222
tun@@ 222
whatever 222
that? 222
dang@@ 222
aria. 222
bili. 222
grafi@@ 222
così, 222
T 221
resourc@@ 221
loso@@ 221
hospit@@ 221
contest@@ 221
beginning 221
ow, 221
leader 221
racco@@ 221
fossero 221
friend 220
John 220
accoun@@ 220
icip@@ 220
wouldn't 220
game 220
ign 220
uses 220
she's 220
api@@ 220
ani. 220
cancro 220
abile 220
sorprend@@ 220
dendo 220
architec@@ 219
vive 219
industr@@ 219
certa@@ 219
ions, 219
Col@@ 219
Brit@@ 219
2, 219
que@@ 219
ingu@@ 219
ci, 219
forni@@ 219
iniziare 219
davanti 219
permette 219
connes@@ 219
chiamata 219
tradit@@ 218
figu@@ 218
creating 218
plain 218
70 218
tol@@ 218
Face@@ 218
segre@@ 218
alta 218
testa 218
talmente 218
tornare 218
né 218
sanno 218
ox@@ 217
designed 217
Ken@@ 217
allow 217
psych@@ 217
OK, 217
dy 217
era, 217
free@@ 217
cident@@ 217
umano 217
Ric@@ 216
performan@@ 216
tail@@ 216
neighbor@@ 216
exce@@ 216
fram@@ 216
save 216
green 216
subjec@@ 216
strugg@@ 216
fran@@ 216
ades@@ 216
Chi@@ 216
bli@@ 216
incredibile 216
fatta 216
oggi. 216
ì@@ 216
nice 215
blood 215
millions 215
mod@@ 215
ce. 215
ders 215
man, 215
changing 215
main 215
sanit@@ 215
controllo 215
denar@@ 215
osped@@ 215
ico, 214
power@@ 214
mortal@@ 214
specific@@ 214
war 214
present 214
lic@@ 214
won't 214
direc@@ 214
atten@@ 214
energi@@ 214
minuti 214
costruito 214
strumenti 214
sping@@ 214
ultima 214
climate 213
desi@@ 213
meet@@ 213
lex@@ 213
animals 213
1,@@ 213
Uni@@ 213
success@@ 213
Ex@@ 213
atter@@ 213
energ@@ 213
companies 213
foot@@ 213
ans, 213
cogn@@ 213
chil@@ 213
water, 213
alg@@ 213
duto 213
Oggi 213
impatto 213
possano 213
fatto, 213
riuscit@@ 213
accett@@ 213
sito 213
punti 213
step 212
n't 212
poor 212
developing 212
deli@@ 212
convers@@ 212
assum@@ 212
alis@@ 212
story. 212
tend 212
moved 212
y." 212
ening 212
gas 212
Californi@@ 212
interpre@@ 212
rou@@ 212
dedic@@ 212
speriment@@ 212
andato 212
pericolo@@ 212
modo, 212
soprat@@ 212
gram 211
particul@@ 211
e?" 211
rai@@ 211
feed@@ 211
consist@@ 211
culture 211
ite. 211
dem@@ 211
risultati 211
prodotti 211
parlato 211
nessun 211
mac@@ 210
manu@@ 210
eat 210
el, 210
ran 210
autom@@ 210
force 210
hun@@ 210
fall@@ 210
image 210
fine, 210
scat@@ 210
storia. 210
pochi 210
qualità 210
molto, 210
Ero 210
mic 209
who's 209
wrote 209
actu@@ 209
ush 209
quant@@ 209
otto 209
music@@ 209
endo. 209
avrebbero 209
veder@@ 209
aziende 209
Stat@@ 208
States 208
likely 208
bed 208
simpl@@ 208
realize 208
planet 208
of, 208
't 208
eight 208
towards 208
ground 208
Er@@ 208
scap@@ 208
era. 208
mani 208
costo 208
democrazi@@ 208
obiettiv@@ 208
liamo 208
ghiacci@@ 208
Ti@@ 207
system, 207
benef@@ 207
lled 207
ically, 207
born 207
s' 207
die 207
idea, 207
dif@@ 207
inate 207
Hu@@ 207
scrivere 207
ecc@@ 207
scala 207
pianeta 207
situazione 207
cosa. 207
cura 207
fri@@ 206
suggest@@ 206
begin@@ 206
flow@@ 206
themselves 206
gic 206
Can@@ 206
agri@@ 206
C'@@ 206
molta 206
universo 206
ancor@@ 206
vogli@@ 206
sola 206
dà 206
nessuna 206
through@@ 205
focus 205
tells 205
altern@@ 205
parents 205
ions. 205
showed 205
ordinary 205
son, 205
eler@@ 205
anyone 205
"W@@ 205
usu@@ 205
ful. 205
facile 205
approc@@ 205
malattie 205
adatt@@ 205
valore 205
cuore 205
pri 205
extremely 204
abor@@ 204
It@@ 204
ight 204
piec@@ 204
es? 204
religi@@ 204
vulner@@ 204
stupi@@ 204
superi@@ 204
gol@@ 204
solito 204
ficio 204
tutto. 204
hour@@ 203
ulti@@ 202
enou@@ 202
orno 202
attraver@@ 202
piamo 202
vers@@ 200
esempi@@ 200
risult@@ 200
hundre@@ 199
“@@ 199
Ci@@ 199
?@@ 199
fos@@ 199
esem@@ 199
ich 198
c'@@ 198
qualc@@ 198
ness@@ 197
net 196
svilu@@ 196
ould 195
luo@@ 195
month@@ 193
oi 193
ybe 191
inste@@ 191
fter 191
publi@@ 190
ther. 190
bamb@@ 190
gover@@ 189
cib@@ 188
thous@@ 187
underst@@ 187
mette 186
ign@@ 185
ned 185
mente, 185
hou@@ 183
DN@@ 183
tti 183
doll@@ 181
spon@@ 181
q@@ 181
pian@@ 179
ple 178
bus@@ 178
più@@ 178
stre 178
imes 177
ven 177
– 177
ful@@ 176
chall@@ 176
hal@@ 174
U.@@ 172
rapi@@ 172
cour@@ 171
ession@@ 171
hap@@ 171
lizz@@ 171
%@@ 171
S. 170
posta 169
now@@ 168
attr@@ 168
sourc@@ 168
Joh@@ 166
ably 166
mad@@ 166
intell@@ 164
sb@@ 164
need@@ 163
whe@@ 162
razi@@ 161
Q@@ 161
appe@@ 160
remem@@ 160
heal@@ 159
osci@@ 159
Goog@@ 159
seem@@ 158
etro 158
uscit@@ 158
ain 157
beauti@@ 157
lon@@ 157
beli@@ 157
fici@@ 157
child@@ 156
bbero 156
full@@ 155
ind 154
alth 154
right@@ 153
amaz@@ 152
that@@ 151
sull@@ 151
citi@@ 150
grazi@@ 150
bero 150
ur 149
miliar@@ 148
P 147
arch 147
L 147
probabi@@ 147
uomin@@ 147
Wor@@ 146
rem@@ 145
giun@@ 145
ile 144
atori@@ 143
ready 142
sult@@ 140
youn@@ 140
unqu@@ 139
econo@@ 138
demo@@ 138
]@@ 138
azi@@ 138
sare@@ 138
$@@ 136
evi@@ 136
risp@@ 135
dell@@ 135
quell@@ 135
A: 134
muc@@ 132
canc@@ 132
buil@@ 131
ace@@ 131
obi@@ 131
prodo@@ 131
fant@@ 130
labor@@ 130
agg@@ 129
indi, 129
ken 128
Pe@@ 127
elet@@ 127
” 126
reali@@ 126
&@@ 126
stem 126
They@@ 126
:@@ 126
immag@@ 125
won@@ 123
nolo@@ 123
Quest@@ 123
nov@@ 121
cellu@@ 121
lmente 121
etting 120
year@@ 119
gn 119
ggi 119
anis@@ 117
altr@@ 116
softw@@ 115
ouldn't 113
psy@@ 111
litt@@ 111
° 111
X 110
igh@@ 110
M 109
B 109
alter@@ 109
ld 108
ans@@ 107
beh@@ 107
difficul@@ 106
realt@@ 105
sai@@ 104
q 104
clim@@ 104
pena 104
ghi@@ 103
amer@@ 101
spit@@ 101
understand@@ 100
;@@ 100
opl@@ 100
ands 100
compani@@ 100
vu@@ 100
v 98
interno 98
lea@@ 96
nec@@ 95
nem@@ 95
tecnolo@@ 94
thir@@ 93
bloo@@ 93
oggi@@ 93
who@@ 92
sof@@ 92
diag@@ 91
fut@@ 90
ampl@@ 89
nex@@ 87
K 87
!@@ 87
gy 87
G 87
pre 87
stem@@ 86
”@@ 86
R 85
kes 85
♫@@ 82
photogra@@ 81
icul@@ 80
N 80
acco 80
etter 79
..@@ 79
wards 78
ell, 78
terr@@ 78
U 78
cco 76
kno@@ 75
hist@@ 73
sic 73
phys@@ 73
mber 72
midd@@ 71
somet@@ 71
amoun@@ 70
forman@@ 70
sano 70
esatt@@ 69
coul@@ 68
phy@@ 67
assolut@@ 66
aia 65
cerv@@ 65
togra@@ 64
abbast@@ 64
Ever@@ 63
engin@@ 63
omen 62
ped@@ 60
haps 60
Grazi@@ 60
cal 59
vul@@ 59
again@@ 58
’ 58
setti@@ 58
diffici@@ 58
acro@@ 57
centin@@ 57
nuc@@ 55
self@@ 53
recogn@@ 53
ff 51
F 51
commer@@ 50
inte@@ 50
tuto 50
Tran@@ 49
+ 49
Y 49
nee@@ 46
sopr@@ 46
/ 44
á@@ 43
script@@ 43
í@@ 43
alcun@@ 43
TE@@ 42
@@@ 42
ample 41
tto@@ 41
Davi@@ 40
indu@@ 39
ppo 38
extrem@@ 36
 @@ 35
H 35
ced@@ 35
Afgh@@ 34
led@@ 34
worl@@ 34
does@@ 34
til 34
Q 34
svi@@ 34
attro 34
biamo 34
ó@@ 33
dispon@@ 33
ú 33
selves 32
«@@ 32
… 31
Vor@@ 31
betwe@@ 30
sour@@ 30
_@@ 30
matem@@ 30
throu@@ 29
mber@@ 29
wro@@ 29
= 29
á 29
sempl@@ 29
Let@@ 28
—@@ 28
stain@@ 28
toge@@ 28
Z 28
cele@@ 28
envi@@ 27
#@@ 27
entist@@ 26
ere's 26
É 26
Af@@ 25
dren 24
ö@@ 24
cus 23
cun@@ 23
ç@@ 23
) 23
$ 23
tty 22
j 22
blem@@ 21
+@@ 21
[ 21
ou 20
detto@@ 20
» 20
W 19
fund@@ 19
Ѐ 19
utto@@ 19
@@ 19
exact@@ 18
Sub@@ 18
lem 18
ã@@ 18
parte@@ 18
neigh@@ 17
J 17
ó 17
alk 16
í 15
diffic@@ 15
°@@ 15
´@@ 15
avigli@@ 15
're 14
anist@@ 14
­@@ 14
siasi 14
impat@@ 14
»@@ 14
portun@@ 13
vidu@@ 13
piutto@@ 13
dn't 12
(@@ 12
I'@@ 11
ü@@ 11
obbiamo 11
Dop@@ 10
*@@ 10
titles 10
econ@@ 10
ñ@@ 10
ften 10
Possi@@ 10
=@@ 10
eccan@@ 10
rought 9
ä@@ 9
อ@@ 8
aliforni@@ 8
egn@@ 7
coup@@ 6
ï@@ 6
at's 6
–@@ 6
‘@@ 6
Á@@ 5
ø@@ 4
ร@@ 4
่@@ 4
ê@@ 4
_ 4
* 4
È@@ 4
´ 4
…@@ 3
@@ 3
ū@@ 3
ī@@ 3
pub@@ 3
ú@@ 3
ë@@ 3
ย@@ 3
rese@@ 3
º@@ 3
£@@ 3
“ 3
º 3
ć 2
vie@@ 2
ā@@ 2
ā 2
â@@ 2
 2
˚ 2
^@@ 2
́@@ 2
indi 2
¿@@ 2
♪@@ 2
  2
​@@ 2
@@ 1
ć@@ 1
ô@@ 1
^ 1
¼ 1
 1
ŧ@@ 1
²@@ 1
û 1
` 1
ë 1
ย 1
ѐ 1
́ 1
 1
¥ 1
½ 1
technolo@@ 1
¾ 1
﻿@@ 1
ȏ@@ 1
² 1
bbiamo 1
‒@@ 1
‘ 1
